{
  "version": "1.0",
  "truncation": null,
  "padding": null,
  "added_tokens": [
    {
      "id": 0,
      "content": "<pad>",
      "single_word": false,
      "lstrip": false,
      "rstrip": false,
      "normalized": false,
      "special": true
    },
    {
      "id": 1,
      "content": "<unk>",
      "single_word": false,
      "lstrip": false,
      "rstrip": false,
      "normalized": false,
      "special": true
    },
    {
      "id": 2,
      "content": "<s>",
      "single_word": false,
      "lstrip": false,
      "rstrip": false,
      "normalized": false,
      "special": true
    },
    {
      "id": 3,
      "content": "</s>",
      "single_word": false,
      "lstrip": false,
      "rstrip": false,
      "normalized": false,
      "special": true
    },
    {
      "id": 4,
      "content": "<user>",
      "single_word": false,
      "lstrip": false,
      "rstrip": false,
      "normalized": false,
      "special": true
    },
    {
      "id": 5,
      "content": "<bot>",
      "single_word": false,
      "lstrip": false,
      "rstrip": false,
      "normalized": false,
      "special": true
    },
    {
      "id": 6,
      "content": "<startoftext>",
      "single_word": false,
      "lstrip": false,
      "rstrip": false,
      "normalized": false,
      "special": true
    },
    {
      "id": 7,
      "content": "<endoftext>",
      "single_word": false,
      "lstrip": false,
      "rstrip": false,
      "normalized": false,
      "special": true
    },
    {
      "id": 8,
      "content": "<filtered>",
      "single_word": false,
      "lstrip": false,
      "rstrip": false,
      "normalized": false,
      "special": true
    }
  ],
  "normalizer": {
    "type": "Sequence",
    "normalizers": [
      {
        "type": "NFD"
      },
      {
        "type": "StripAccents"
      }
    ]
  },
  "pre_tokenizer": {
    "type": "Whitespace"
  },
  "post_processor": {
    "type": "TemplateProcessing",
    "single": [
      {
        "SpecialToken": {
          "id": "<s>",
          "type_id": 0
        }
      },
      {
        "Sequence": {
          "id": "A",
          "type_id": 0
        }
      },
      {
        "SpecialToken": {
          "id": "</s>",
          "type_id": 0
        }
      }
    ],
    "pair": [
      {
        "SpecialToken": {
          "id": "<s>",
          "type_id": 0
        }
      },
      {
        "Sequence": {
          "id": "A",
          "type_id": 0
        }
      },
      {
        "SpecialToken": {
          "id": "</s>",
          "type_id": 0
        }
      },
      {
        "SpecialToken": {
          "id": "<s>",
          "type_id": 0
        }
      },
      {
        "Sequence": {
          "id": "B",
          "type_id": 0
        }
      },
      {
        "SpecialToken": {
          "id": "</s>",
          "type_id": 0
        }
      }
    ],
    "special_tokens": {
      "</s>": {
        "id": "</s>",
        "ids": [
          3
        ],
        "tokens": [
          "</s>"
        ]
      },
      "<s>": {
        "id": "<s>",
        "ids": [
          2
        ],
        "tokens": [
          "<s>"
        ]
      }
    }
  },
  "decoder": null,
  "model": {
    "type": "BPE",
    "dropout": null,
    "unk_token": null,
    "continuing_subword_prefix": null,
    "end_of_word_suffix": null,
    "fuse_unk": false,
    "byte_fallback": false,
    "ignore_merges": false,
    "vocab": {
      "<pad>": 0,
      "<unk>": 1,
      "<s>": 2,
      "</s>": 3,
      "<user>": 4,
      "<bot>": 5,
      "<startoftext>": 6,
      "<endoftext>": 7,
      "<filtered>": 8,
      "\u001a": 9,
      "!": 10,
      "\"": 11,
      "#": 12,
      "$": 13,
      "%": 14,
      "&": 15,
      "'": 16,
      "(": 17,
      ")": 18,
      "*": 19,
      "+": 20,
      ",": 21,
      "-": 22,
      ".": 23,
      "/": 24,
      "0": 25,
      "1": 26,
      "2": 27,
      "3": 28,
      "4": 29,
      "5": 30,
      "6": 31,
      "7": 32,
      "8": 33,
      "9": 34,
      ":": 35,
      ";": 36,
      "<": 37,
      "=": 38,
      ">": 39,
      "?": 40,
      "@": 41,
      "A": 42,
      "B": 43,
      "C": 44,
      "D": 45,
      "E": 46,
      "F": 47,
      "G": 48,
      "H": 49,
      "I": 50,
      "J": 51,
      "K": 52,
      "L": 53,
      "M": 54,
      "N": 55,
      "O": 56,
      "P": 57,
      "Q": 58,
      "R": 59,
      "S": 60,
      "T": 61,
      "U": 62,
      "V": 63,
      "W": 64,
      "X": 65,
      "Y": 66,
      "Z": 67,
      "[": 68,
      "\\": 69,
      "]": 70,
      "^": 71,
      "_": 72,
      "`": 73,
      "a": 74,
      "b": 75,
      "c": 76,
      "d": 77,
      "e": 78,
      "f": 79,
      "g": 80,
      "h": 81,
      "i": 82,
      "j": 83,
      "k": 84,
      "l": 85,
      "m": 86,
      "n": 87,
      "o": 88,
      "p": 89,
      "q": 90,
      "r": 91,
      "s": 92,
      "t": 93,
      "u": 94,
      "v": 95,
      "w": 96,
      "x": 97,
      "y": 98,
      "z": 99,
      "{": 100,
      "|": 101,
      "}": 102,
      "~": 103,
      "": 104,
      "": 105,
      "": 106,
      "": 107,
      "": 108,
      "": 109,
      "": 110,
      "": 111,
      "": 112,
      "": 113,
      "": 114,
      "¡": 115,
      "¢": 116,
      "£": 117,
      "§": 118,
      "©": 119,
      "«": 120,
      "­": 121,
      "®": 122,
      "¯": 123,
      "°": 124,
      "±": 125,
      "²": 126,
      "´": 127,
      "µ": 128,
      "¶": 129,
      "·": 130,
      "»": 131,
      "¼": 132,
      "½": 133,
      "¾": 134,
      "¿": 135,
      "×": 136,
      "Ø": 137,
      "ß": 138,
      "æ": 139,
      "ð": 140,
      "÷": 141,
      "ø": 142,
      "Đ": 143,
      "đ": 144,
      "ı": 145,
      "Ł": 146,
      "ə": 147,
      "ɛ": 148,
      "ɢ": 149,
      "ɪ": 150,
      "ɴ": 151,
      "ɹ": 152,
      "ʀ": 153,
      "ʟ": 154,
      "ˈ": 155,
      "ˌ": 156,
      "ː": 157,
      "Ω": 158,
      "α": 159,
      "β": 160,
      "γ": 161,
      "δ": 162,
      "ι": 163,
      "μ": 164,
      "ν": 165,
      "ο": 166,
      "π": 167,
      "ρ": 168,
      "ς": 169,
      "σ": 170,
      "υ": 171,
      "φ": 172,
      "χ": 173,
      "ω": 174,
      "А": 175,
      "В": 176,
      "Г": 177,
      "Д": 178,
      "И": 179,
      "К": 180,
      "Л": 181,
      "Н": 182,
      "О": 183,
      "П": 184,
      "Р": 185,
      "С": 186,
      "Т": 187,
      "Ф": 188,
      "Х": 189,
      "Ц": 190,
      "Ш": 191,
      "Э": 192,
      "Ю": 193,
      "а": 194,
      "б": 195,
      "в": 196,
      "г": 197,
      "д": 198,
      "е": 199,
      "ж": 200,
      "з": 201,
      "и": 202,
      "к": 203,
      "л": 204,
      "м": 205,
      "н": 206,
      "о": 207,
      "п": 208,
      "р": 209,
      "с": 210,
      "т": 211,
      "у": 212,
      "ф": 213,
      "х": 214,
      "ц": 215,
      "ч": 216,
      "ш": 217,
      "щ": 218,
      "ъ": 219,
      "ы": 220,
      "ь": 221,
      "э": 222,
      "ю": 223,
      "я": 224,
      "א": 225,
      "ב": 226,
      "ג": 227,
      "ד": 228,
      "ה": 229,
      "ו": 230,
      "ז": 231,
      "ח": 232,
      "ט": 233,
      "י": 234,
      "ך": 235,
      "כ": 236,
      "ל": 237,
      "ם": 238,
      "מ": 239,
      "ן": 240,
      "נ": 241,
      "ס": 242,
      "ע": 243,
      "פ": 244,
      "צ": 245,
      "ק": 246,
      "ר": 247,
      "ש": 248,
      "ת": 249,
      "،": 250,
      "ء": 251,
      "ا": 252,
      "ب": 253,
      "ة": 254,
      "ت": 255,
      "ث": 256,
      "ج": 257,
      "ح": 258,
      "خ": 259,
      "د": 260,
      "ذ": 261,
      "ر": 262,
      "س": 263,
      "ش": 264,
      "ص": 265,
      "ض": 266,
      "ط": 267,
      "ظ": 268,
      "ع": 269,
      "غ": 270,
      "ف": 271,
      "ق": 272,
      "ك": 273,
      "ل": 274,
      "م": 275,
      "ن": 276,
      "ه": 277,
      "و": 278,
      "ى": 279,
      "ي": 280,
      "ง": 281,
      "ว": 282,
      "ი": 283,
      "კ": 284,
      "ყ": 285,
      "წ": 286,
      "ᄀ": 287,
      "ᄁ": 288,
      "ᄂ": 289,
      "ᄃ": 290,
      "ᄅ": 291,
      "ᄆ": 292,
      "ᄇ": 293,
      "ᄉ": 294,
      "ᄋ": 295,
      "ᄌ": 296,
      "ᄏ": 297,
      "ᄐ": 298,
      "ᄑ": 299,
      "ᄒ": 300,
      "ᅡ": 301,
      "ᅥ": 302,
      "ᅦ": 303,
      "ᅧ": 304,
      "ᅨ": 305,
      "ᅩ": 306,
      "ᅭ": 307,
      "ᅮ": 308,
      "ᅳ": 309,
      "ᅴ": 310,
      "ᅵ": 311,
      "ᆨ": 312,
      "ᆩ": 313,
      "ᆫ": 314,
      "ᆯ": 315,
      "ᆷ": 316,
      "ᆹ": 317,
      "ᆺ": 318,
      "ᆼ": 319,
      "ᐛ": 320,
      "ᕕ": 321,
      "ᕗ": 322,
      "ᴀ": 323,
      "ᴄ": 324,
      "ᴇ": 325,
      "ᴘ": 326,
      "ᴛ": 327,
      "ᴠ": 328,
      "​": 329,
      "‍": 330,
      "‎": 331,
      "‏": 332,
      "‑": 333,
      "–": 334,
      "—": 335,
      "―": 336,
      "‘": 337,
      "’": 338,
      "“": 339,
      "”": 340,
      "„": 341,
      "•": 342,
      "…": 343,
      "′": 344,
      "″": 345,
      "※": 346,
      "⁄": 347,
      "€": 348,
      "™": 349,
      "↑": 350,
      "→": 351,
      "↓": 352,
      "⇓": 353,
      "∀": 354,
      "−": 355,
      "∧": 356,
      "∼": 357,
      "≈": 358,
      "≤": 359,
      "≥": 360,
      "⊂": 361,
      "⏭": 362,
      "ⓒ": 363,
      "─": 364,
      "━": 365,
      "▄": 366,
      "■": 367,
      "□": 368,
      "▲": 369,
      "△": 370,
      "▶": 371,
      "▸": 372,
      "►": 373,
      "▼": 374,
      "▾": 375,
      "◂": 376,
      "◊": 377,
      "★": 378,
      "☆": 379,
      "☺": 380,
      "♡": 381,
      "♥": 382,
      "♦": 383,
      "♪": 384,
      "❤": 385,
      "⦁": 386,
      "。": 387,
      "《": 388,
      "》": 389,
      "し": 390,
      "つ": 391,
      "゜": 392,
      "ゝ": 393,
      "ツ": 394,
      "ノ": 395,
      "・": 396,
      "ㅇ": 397,
      "一": 398,
      "三": 399,
      "上": 400,
      "下": 401,
      "不": 402,
      "与": 403,
      "个": 404,
      "中": 405,
      "举": 406,
      "么": 407,
      "义": 408,
      "也": 409,
      "了": 410,
      "争": 411,
      "人": 412,
      "什": 413,
      "仇": 414,
      "介": 415,
      "代": 416,
      "们": 417,
      "仰": 418,
      "会": 419,
      "但": 420,
      "作": 421,
      "你": 422,
      "信": 423,
      "修": 424,
      "元": 425,
      "共": 426,
      "其": 427,
      "内": 428,
      "出": 429,
      "分": 430,
      "切": 431,
      "则": 432,
      "別": 433,
      "别": 434,
      "制": 435,
      "动": 436,
      "動": 437,
      "化": 438,
      "半": 439,
      "南": 440,
      "厚": 441,
      "去": 442,
      "又": 443,
      "友": 444,
      "发": 445,
      "古": 446,
      "只": 447,
      "叭": 448,
      "台": 449,
      "叶": 450,
      "号": 451,
      "各": 452,
      "名": 453,
      "后": 454,
      "君": 455,
      "吧": 456,
      "命": 457,
      "啦": 458,
      "喇": 459,
      "国": 460,
      "圈": 461,
      "圣": 462,
      "在": 463,
      "地": 464,
      "城": 465,
      "域": 466,
      "壹": 467,
      "多": 468,
      "大": 469,
      "天": 470,
      "央": 471,
      "失": 472,
      "头": 473,
      "好": 474,
      "姓": 475,
      "字": 476,
      "孤": 477,
      "学": 478,
      "安": 479,
      "实": 480,
      "审": 481,
      "家": 482,
      "导": 483,
      "小": 484,
      "就": 485,
      "局": 486,
      "属": 487,
      "島": 488,
      "己": 489,
      "已": 490,
      "帆": 491,
      "希": 492,
      "常": 493,
      "干": 494,
      "广": 495,
      "应": 496,
      "底": 497,
      "度": 498,
      "开": 499,
      "引": 500,
      "影": 501,
      "很": 502,
      "微": 503,
      "心": 504,
      "念": 505,
      "怀": 506,
      "怎": 507,
      "思": 508,
      "性": 509,
      "总": 510,
      "恋": 511,
      "想": 512,
      "愛": 513,
      "感": 514,
      "成": 515,
      "我": 516,
      "或": 517,
      "战": 518,
      "扉": 519,
      "才": 520,
      "把": 521,
      "抱": 522,
      "捌": 523,
      "据": 524,
      "播": 525,
      "改": 526,
      "放": 527,
      "政": 528,
      "文": 529,
      "新": 530,
      "旁": 531,
      "既": 532,
      "日": 533,
      "早": 534,
      "时": 535,
      "明": 536,
      "昏": 537,
      "星": 538,
      "春": 539,
      "是": 540,
      "晚": 541,
      "曰": 542,
      "月": 543,
      "有": 544,
      "望": 545,
      "朝": 546,
      "期": 547,
      "本": 548,
      "杀": 549,
      "柒": 550,
      "样": 551,
      "橐": 552,
      "次": 553,
      "歉": 554,
      "正": 555,
      "此": 556,
      "殺": 557,
      "氣": 558,
      "求": 559,
      "没": 560,
      "测": 561,
      "涌": 562,
      "深": 563,
      "激": 564,
      "炁": 565,
      "点": 566,
      "热": 567,
      "然": 568,
      "片": 569,
      "猜": 570,
      "玖": 571,
      "玫": 572,
      "现": 573,
      "瑰": 574,
      "甚": 575,
      "由": 576,
      "电": 577,
      "疑": 578,
      "百": 579,
      "的": 580,
      "直": 581,
      "相": 582,
      "真": 583,
      "眼": 584,
      "睛": 585,
      "睡": 586,
      "知": 587,
      "砲": 588,
      "确": 589,
      "神": 590,
      "禁": 591,
      "离": 592,
      "秋": 593,
      "种": 594,
      "空": 595,
      "立": 596,
      "算": 597,
      "管": 598,
      "粉": 599,
      "绍": 600,
      "经": 601,
      "编": 602,
      "网": 603,
      "老": 604,
      "者": 605,
      "聞": 606,
      "能": 607,
      "脆": 608,
      "脚": 609,
      "自": 610,
      "至": 611,
      "船": 612,
      "花": 613,
      "蕴": 614,
      "蝶": 615,
      "行": 616,
      "要": 617,
      "观": 618,
      "视": 619,
      "觉": 620,
      "解": 621,
      "言": 622,
      "让": 623,
      "议": 624,
      "许": 625,
      "该": 626,
      "说": 627,
      "谁": 628,
      "负": 629,
      "责": 630,
      "踏": 631,
      "过": 632,
      "还": 633,
      "这": 634,
      "通": 635,
      "道": 636,
      "那": 637,
      "部": 638,
      "都": 639,
      "释": 640,
      "里": 641,
      "鉄": 642,
      "门": 643,
      "队": 644,
      "阶": 645,
      "陆": 646,
      "限": 647,
      "隊": 648,
      "静": 649,
      "非": 650,
      "革": 651,
      "领": 652,
      "频": 653,
      "首": 654,
      "高": 655,
      "鬼": 656,
      "鸣": 657,
      "": 658,
      "": 659,
      "": 660,
      "": 661,
      "": 662,
      "": 663,
      "": 664,
      "": 665,
      "": 666,
      "ﬀ": 667,
      "ﬁ": 668,
      "ﭑ": 669,
      "ﭒ": 670,
      "ﭓ": 671,
      "ﭔ": 672,
      "ﭕ": 673,
      "ﭖ": 674,
      "ﭗ": 675,
      "ﭘ": 676,
      "ﭙ": 677,
      "ﭚ": 678,
      "ﭛ": 679,
      "ﭜ": 680,
      "ﭝ": 681,
      "ﭮ": 682,
      "ﭯ": 683,
      "ﭰ": 684,
      "ﭱ": 685,
      "ﭲ": 686,
      "ﭳ": 687,
      "ﭴ": 688,
      "ﭵ": 689,
      "ﭶ": 690,
      "ﭷ": 691,
      "ﭸ": 692,
      "ﭹ": 693,
      "ﭺ": 694,
      "ﭻ": 695,
      "ﭼ": 696,
      "ﭽ": 697,
      "ﮍ": 698,
      "ﮎ": 699,
      "ﮏ": 700,
      "ﮐ": 701,
      "ﮑ": 702,
      "ﮒ": 703,
      "ﮓ": 704,
      "ﮔ": 705,
      "ﮕ": 706,
      "ﮖ": 707,
      "ﮗ": 708,
      "ﮘ": 709,
      "ﮢ": 710,
      "ﮣ": 711,
      "ﮤ": 712,
      "ﮥ": 713,
      "ﮦ": 714,
      "ﮧ": 715,
      "ﮨ": 716,
      "ﮩ": 717,
      "ﮪ": 718,
      "ﮫ": 719,
      "ﮬ": 720,
      "ﮭ": 721,
      "ﮮ": 722,
      "ﮯ": 723,
      "ﮰ": 724,
      "ﮱ": 725,
      "ﯓ": 726,
      "ﯔ": 727,
      "ﯕ": 728,
      "ﯖ": 729,
      "ﯗ": 730,
      "ﯘ": 731,
      "ﯙ": 732,
      "ﯚ": 733,
      "ﯛ": 734,
      "ﯜ": 735,
      "ﯝ": 736,
      "ﯞ": 737,
      "ﯟ": 738,
      "ﯠ": 739,
      "ﯡ": 740,
      "ﯢ": 741,
      "ﯣ": 742,
      "ﯤ": 743,
      "ﯥ": 744,
      "ﯦ": 745,
      "ﯱ": 746,
      "ﯲ": 747,
      "ﯳ": 748,
      "ﯴ": 749,
      "ﯵ": 750,
      "ﯶ": 751,
      "ﯷ": 752,
      "ﯸ": 753,
      "ﯹ": 754,
      "ﯺ": 755,
      "ﯻ": 756,
      "ﯼ": 757,
      "ﯽ": 758,
      "ﯾ": 759,
      "ﯿ": 760,
      "ﰀ": 761,
      "ﰁ": 762,
      "ﰂ": 763,
      "ﰃ": 764,
      "ﰄ": 765,
      "ﰅ": 766,
      "ﰆ": 767,
      "ﰇ": 768,
      "ﰈ": 769,
      "ﰉ": 770,
      "ﰊ": 771,
      "ﰋ": 772,
      "ﰌ": 773,
      "ﰍ": 774,
      "ﰎ": 775,
      "ﰏ": 776,
      "ﰐ": 777,
      "ﰑ": 778,
      "ﰒ": 779,
      "！": 780,
      "（": 781,
      "）": 782,
      "，": 783,
      "／": 784,
      "：": 785,
      "？": 786,
      "Ｊ": 787,
      "＼": 788,
      "＿": 789,
      "｀": 790,
      "｡": 791,
      "･": 792,
      "ﾟ": 793,
      "￼": 794,
      "�": 795,
      "🇸": 796,
      "🇺": 797,
      "🎄": 798,
      "🎉": 799,
      "🏆": 800,
      "🏻": 801,
      "👀": 802,
      "👇": 803,
      "👉": 804,
      "👍": 805,
      "💋": 806,
      "🖕": 807,
      "😀": 808,
      "😊": 809,
      "😩": 810,
      "😮": 811,
      "🙂": 812,
      "🙇": 813,
      "th": 814,
      "in": 815,
      "er": 816,
      "an": 817,
      "the": 818,
      "on": 819,
      "re": 820,
      "at": 821,
      "en": 822,
      "ou": 823,
      "st": 824,
      "ed": 825,
      "or": 826,
      "to": 827,
      "ing": 828,
      "is": 829,
      "al": 830,
      "and": 831,
      "00": 832,
      "ar": 833,
      "of": 834,
      "as": 835,
      "it": 836,
      "es": 837,
      "he": 838,
      "le": 839,
      "om": 840,
      "ic": 841,
      "se": 842,
      "be": 843,
      "ad": 844,
      "ion": 845,
      "il": 846,
      "ow": 847,
      "ent": 848,
      "ly": 849,
      "ac": 850,
      "wh": 851,
      "ve": 852,
      "id": 853,
      "for": 854,
      "that": 855,
      "ot": 856,
      "im": 857,
      "ch": 858,
      "ver": 859,
      "am": 860,
      "ay": 861,
      "gh": 862,
      "ld": 863,
      "ut": 864,
      "0000": 865,
      "ith": 866,
      "ro": 867,
      "ir": 868,
      "was": 869,
      "ere": 870,
      "you": 871,
      "li": 872,
      "ce": 873,
      "un": 874,
      "with": 875,
      "et": 876,
      "ha": 877,
      "ri": 878,
      "su": 879,
      "all": 880,
      "de": 881,
      "his": 882,
      "ag": 883,
      "ab": 884,
      "ter": 885,
      "ol": 886,
      "ne": 887,
      "mo": 888,
      "el": 889,
      "The": 890,
      "not": 891,
      "ur": 892,
      "ill": 893,
      "ke": 894,
      "us": 895,
      "are": 896,
      "ct": 897,
      "con": 898,
      "lo": 899,
      "ght": 900,
      "ould": 901,
      "pe": 902,
      "com": 903,
      "ation": 904,
      "ers": 905,
      "out": 906,
      "ain": 907,
      "sh": 908,
      "so": 909,
      "ul": 910,
      "me": 911,
      "one": 912,
      "ther": 913,
      "nd": 914,
      "fr": 915,
      "her": 916,
      "sa": 917,
      "po": 918,
      "we": 919,
      "ess": 920,
      "res": 921,
      "by": 922,
      "ap": 923,
      "ust": 924,
      "od": 925,
      "000": 926,
      "ate": 927,
      "have": 928,
      "had": 929,
      "if": 930,
      "our": 931,
      "pl": 932,
      "ex": 933,
      "but": 934,
      "op": 935,
      "em": 936,
      "ant": 937,
      "qu": 938,
      "from": 939,
      "man": 940,
      "tr": 941,
      "this": 942,
      "fe": 943,
      "--": 944,
      "pro": 945,
      "ist": 946,
      "art": 947,
      "ard": 948,
      "0000000": 949,
      "up": 950,
      "ast": 951,
      "end": 952,
      "per": 953,
      "go": 954,
      "ig": 955,
      "ome": 956,
      "do": 957,
      "now": 958,
      "said": 959,
      "no": 960,
      "wor": 961,
      "ment": 962,
      "they": 963,
      "him": 964,
      "ich": 965,
      "ity": 966,
      "she": 967,
      "ge": 968,
      "very": 969,
      "my": 970,
      "ive": 971,
      "ind": 972,
      "ous": 973,
      "who": 974,
      "pr": 975,
      "Th": 976,
      "own": 977,
      "ort": 978,
      "ong": 979,
      "thing": 980,
      "gr": 981,
      "which": 982,
      "ak": 983,
      "ok": 984,
      "were": 985,
      "ight": 986,
      "um": 987,
      "ack": 988,
      "their": 989,
      "ound": 990,
      "ell": 991,
      "ear": 992,
      "will": 993,
      "act": 994,
      "can": 995,
      "au": 996,
      "est": 997,
      "more": 998,
      "ally": 999,
      "would": 1000,
      "ck": 1001,
      "ame": 1002,
      "ies": 1003,
      "has": 1004,
      "ore": 1005,
      "some": 1006,
      "sel": 1007,
      ".\"": 1008,
      "Wh": 1009,
      "af": 1010,
      "ough": 1011,
      "cl": 1012,
      "int": 1013,
      "ven": 1014,
      "way": 1015,
      "der": 1016,
      "ie": 1017,
      "co": 1018,
      "them": 1019,
      "any": 1020,
      "ice": 1021,
      "bo": 1022,
      "been": 1023,
      "ure": 1024,
      "ide": 1025,
      "bl": 1026,
      "there": 1027,
      "able": 1028,
      "ish": 1029,
      "It": 1030,
      "tim": 1031,
      "He": 1032,
      "ine": 1033,
      "sp": 1034,
      "In": 1035,
      "what": 1036,
      "ence": 1037,
      "ake": 1038,
      "ire": 1039,
      "ci": 1040,
      "oun": 1041,
      "day": 1042,
      "age": 1043,
      "like": 1044,
      "other": 1045,
      "ass": 1046,
      "your": 1047,
      "ll": 1048,
      "ans": 1049,
      "ep": 1050,
      "01": 1051,
      "its": 1052,
      "ace": 1053,
      "could": 1054,
      ",\"": 1055,
      "about": 1056,
      "reat": 1057,
      "si": 1058,
      "than": 1059,
      "cr": 1060,
      "when": 1061,
      "over": 1062,
      "pp": 1063,
      "off": 1064,
      "itt": 1065,
      "ite": 1066,
      "ance": 1067,
      "And": 1068,
      "know": 1069,
      "iv": 1070,
      "ions": 1071,
      "ra": 1072,
      "ber": 1073,
      "self": 1074,
      "ach": 1075,
      "dis": 1076,
      "ho": 1077,
      "ud": 1078,
      "But": 1079,
      "av": 1080,
      "part": 1081,
      "pos": 1082,
      "ful": 1083,
      "pt": 1084,
      "ue": 1085,
      "pre": 1086,
      "ink": 1087,
      "time": 1088,
      "br": 1089,
      "fore": 1090,
      "St": 1091,
      "str": 1092,
      "ple": 1093,
      "ary": 1094,
      "Mr": 1095,
      "ble": 1096,
      "wo": 1097,
      "how": 1098,
      "ile": 1099,
      "pres": 1100,
      "ated": 1101,
      "ree": 1102,
      "att": 1103,
      "say": 1104,
      "most": 1105,
      "new": 1106,
      "year": 1107,
      "see": 1108,
      "ign": 1109,
      "into": 1110,
      "ick": 1111,
      "te": 1112,
      "ser": 1113,
      "just": 1114,
      "low": 1115,
      "cre": 1116,
      "fir": 1117,
      "only": 1118,
      "get": 1119,
      "mar": 1120,
      "cont": 1121,
      "ade": 1122,
      "mer": 1123,
      "work": 1124,
      "look": 1125,
      "fer": 1126,
      "fa": 1127,
      "ning": 1128,
      "ip": 1129,
      "spe": 1130,
      "did": 1131,
      "again": 1132,
      "ang": 1133,
      "ever": 1134,
      "uch": 1135,
      "aw": 1136,
      "ose": 1137,
      "then": 1138,
      "ob": 1139,
      "ord": 1140,
      "ought": 1141,
      "after": 1142,
      "comp": 1143,
      "port": 1144,
      "read": 1145,
      "mon": 1146,
      "Ch": 1147,
      "coun": 1148,
      "ia": 1149,
      "ved": 1150,
      "ry": 1151,
      "every": 1152,
      "long": 1153,
      "ty": 1154,
      "ious": 1155,
      "ase": 1156,
      "tur": 1157,
      "should": 1158,
      "well": 1159,
      "think": 1160,
      "come": 1161,
      "first": 1162,
      "xt": 1163,
      "ittle": 1164,
      "ren": 1165,
      "tain": 1166,
      "ian": 1167,
      "under": 1168,
      "ople": 1169,
      "two": 1170,
      "form": 1171,
      "much": 1172,
      "ory": 1173,
      "ction": 1174,
      "cent": 1175,
      "ations": 1176,
      "ild": 1177,
      "old": 1178,
      "down": 1179,
      "igh": 1180,
      "such": 1181,
      "thr": 1182,
      "ward": 1183,
      "back": 1184,
      "even": 1185,
      "good": 1186,
      "bet": 1187,
      "pol": 1188,
      "also": 1189,
      "cau": 1190,
      "ail": 1191,
      "ts": 1192,
      "right": 1193,
      "red": 1194,
      "iz": 1195,
      "We": 1196,
      "people": 1197,
      "less": 1198,
      "sc": 1199,
      "ev": 1200,
      "where": 1201,
      "fl": 1202,
      "ath": 1203,
      "ens": 1204,
      "little": 1205,
      "des": 1206,
      "ial": 1207,
      "ical": 1208,
      "ise": 1209,
      "ef": 1210,
      "This": 1211,
      "great": 1212,
      "ition": 1213,
      "these": 1214,
      "ors": 1215,
      "ving": 1216,
      "iss": 1217,
      "before": 1218,
      "play": 1219,
      "201": 1220,
      "min": 1221,
      "let": 1222,
      "land": 1223,
      "cause": 1224,
      "many": 1225,
      "hand": 1226,
      "must": 1227,
      "ates": 1228,
      "ave": 1229,
      "ale": 1230,
      "being": 1231,
      "You": 1232,
      "may": 1233,
      "alk": 1234,
      "du": 1235,
      "make": 1236,
      "ng": 1237,
      "last": 1238,
      "call": 1239,
      "wr": 1240,
      "med": 1241,
      "ps": 1242,
      "cess": 1243,
      "head": 1244,
      "ect": 1245,
      "44": 1246,
      "ma": 1247,
      "air": 1248,
      "gu": 1249,
      "anc": 1250,
      "turn": 1251,
      "ings": 1252,
      "don": 1253,
      "made": 1254,
      "ph": 1255,
      "ness": 1256,
      "cer": 1257,
      "ident": 1258,
      "want": 1259,
      "never": 1260,
      "might": 1261,
      "ask": 1262,
      "here": 1263,
      "As": 1264,
      "bu": 1265,
      ".”": 1266,
      "inter": 1267,
      "enc": 1268,
      "reg": 1269,
      "car": 1270,
      "ouse": 1271,
      "led": 1272,
      "cur": 1273,
      "ater": 1274,
      "ash": 1275,
      "those": 1276,
      "ting": 1277,
      "She": 1278,
      "light": 1279,
      "use": 1280,
      "ily": 1281,
      "ress": 1282,
      "ves": 1283,
      "fin": 1284,
      "sm": 1285,
      "comm": 1286,
      "arm": 1287,
      "seem": 1288,
      "still": 1289,
      "through": 1290,
      "stand": 1291,
      "too": 1292,
      "ason": 1293,
      "ted": 1294,
      "19": 1295,
      "They": 1296,
      "ubl": 1297,
      "add": 1298,
      "ss": 1299,
      "Fr": 1300,
      "put": 1301,
      "og": 1302,
      "side": 1303,
      "Pr": 1304,
      "vers": 1305,
      "aking": 1306,
      "came": 1307,
      "happ": 1308,
      "ents": 1309,
      "col": 1310,
      "ener": 1311,
      "though": 1312,
      "sur": 1313,
      "ried": 1314,
      "atch": 1315,
      "ank": 1316,
      "used": 1317,
      "ark": 1318,
      "years": 1319,
      "try": 1320,
      "riend": 1321,
      "oc": 1322,
      "while": 1323,
      "point": 1324,
      "?\"": 1325,
      "cle": 1326,
      "cons": 1327,
      "thought": 1328,
      "ew": 1329,
      "For": 1330,
      "ey": 1331,
      "because": 1332,
      "Tr": 1333,
      "lect": 1334,
      "ied": 1335,
      "dif": 1336,
      "set": 1337,
      "ways": 1338,
      "friend": 1339,
      "men": 1340,
      "ood": 1341,
      "So": 1342,
      "To": 1343,
      "fect": 1344,
      "ict": 1345,
      "leg": 1346,
      "Br": 1347,
      "dr": 1348,
      "les": 1349,
      "That": 1350,
      ",”": 1351,
      "No": 1352,
      "found": 1353,
      "ince": 1354,
      "ner": 1355,
      "ject": 1356,
      "sure": 1357,
      "There": 1358,
      "night": 1359,
      "ten": 1360,
      "clo": 1361,
      "same": 1362,
      "What": 1363,
      "beg": 1364,
      "ody": 1365,
      "vis": 1366,
      "644": 1367,
      "world": 1368,
      "high": 1369,
      "cho": 1370,
      "pers": 1371,
      "pass": 1372,
      "txt": 1373,
      "hel": 1374,
      "amp": 1375,
      "If": 1376,
      "take": 1377,
      "00000000000": 1378,
      "0000644": 1379,
      "need": 1380,
      "ustar": 1381,
      "Mar": 1382,
      "atter": 1383,
      "ship": 1384,
      "ating": 1385,
      "pect": 1386,
      "sy": 1387,
      "ange": 1388,
      "cial": 1389,
      "An": 1390,
      "De": 1391,
      "Mrs": 1392,
      "ton": 1393,
      "upon": 1394,
      "ular": 1395,
      "ced": 1396,
      "word": 1397,
      "jo": 1398,
      "10": 1399,
      "ult": 1400,
      "son": 1401,
      "ower": 1402,
      "does": 1403,
      "life": 1404,
      "pon": 1405,
      "ublic": 1406,
      "without": 1407,
      "char": 1408,
      "ments": 1409,
      "against": 1410,
      "ub": 1411,
      "ump": 1412,
      "sub": 1413,
      "Al": 1414,
      "ased": 1415,
      "cour": 1416,
      "lin": 1417,
      "mem": 1418,
      "vie": 1419,
      "bro": 1420,
      "going": 1421,
      "lar": 1422,
      "main": 1423,
      "ited": 1424,
      "als": 1425,
      "eng": 1426,
      "body": 1427,
      "three": 1428,
      "!\"": 1429,
      "supp": 1430,
      "ered": 1431,
      "Re": 1432,
      "wom": 1433,
      "inst": 1434,
      "bre": 1435,
      "sing": 1436,
      "yet": 1437,
      "cord": 1438,
      "appe": 1439,
      "gl": 1440,
      "ug": 1441,
      "shall": 1442,
      "cept": 1443,
      "feel": 1444,
      "away": 1445,
      "ared": 1446,
      "find": 1447,
      "pri": 1448,
      "ff": 1449,
      "far": 1450,
      "got": 1451,
      "cap": 1452,
      "something": 1453,
      "ween": 1454,
      "show": 1455,
      "incl": 1456,
      "house": 1457,
      "dec": 1458,
      "ities": 1459,
      "ek": 1460,
      "ollow": 1461,
      "quest": 1462,
      "war": 1463,
      "run": 1464,
      "How": 1465,
      "den": 1466,
      "par": 1467,
      "Un": 1468,
      "child": 1469,
      "che": 1470,
      "place": 1471,
      "ins": 1472,
      "und": 1473,
      "fam": 1474,
      "each": 1475,
      "went": 1476,
      "beli": 1477,
      "rest": 1478,
      "really": 1479,
      "serv": 1480,
      "ys": 1481,
      "state": 1482,
      "val": 1483,
      "uck": 1484,
      "himself": 1485,
      "ative": 1486,
      "always": 1487,
      "ual": 1488,
      "az": 1489,
      "another": 1490,
      "Se": 1491,
      "person": 1492,
      ").": 1493,
      "lead": 1494,
      "rel": 1495,
      "between": 1496,
      "Ar": 1497,
      "won": 1498,
      "Jo": 1499,
      "Em": 1500,
      "fact": 1501,
      "mark": 1502,
      "ft": 1503,
      "tell": 1504,
      "both": 1505,
      "New": 1506,
      "cond": 1507,
      "best": 1508,
      "ened": 1509,
      "give": 1510,
      "view": 1511,
      "nor": 1512,
      "sha": 1513,
      "ext": 1514,
      "dist": 1515,
      "power": 1516,
      "Amer": 1517,
      "Americ": 1518,
      "law": 1519,
      "ational": 1520,
      "vo": 1521,
      "ussi": 1522,
      "present": 1523,
      "36": 1524,
      "things": 1525,
      "vi": 1526,
      "start": 1527,
      "nothing": 1528,
      "cut": 1529,
      "ote": 1530,
      "aim": 1531,
      "fort": 1532,
      "20": 1533,
      "differ": 1534,
      "mor": 1535,
      "When": 1536,
      "home": 1537,
      "ished": 1538,
      "tri": 1539,
      "uring": 1540,
      "ars": 1541,
      "press": 1542,
      "few": 1543,
      "ann": 1544,
      "gener": 1545,
      "hal": 1546,
      "Con": 1547,
      "os": 1548,
      "better": 1549,
      "told": 1550,
      "arch": 1551,
      "ility": 1552,
      "real": 1553,
      "app": 1554,
      "sible": 1555,
      "On": 1556,
      "ific": 1557,
      "iness": 1558,
      "Is": 1559,
      "report": 1560,
      "di": 1561,
      "cor": 1562,
      "sol": 1563,
      "contin": 1564,
      "ush": 1565,
      "015": 1566,
      "..": 1567,
      "ready": 1568,
      "ures": 1569,
      "help": 1570,
      "saw": 1571,
      "Be": 1572,
      "nment": 1573,
      "soon": 1574,
      "inde": 1575,
      "sim": 1576,
      "follow": 1577,
      "talk": 1578,
      "face": 1579,
      "sul": 1580,
      "ged": 1581,
      "200": 1582,
      "ense": 1583,
      "gover": 1584,
      "det": 1585,
      "irect": 1586,
      "hard": 1587,
      "At": 1588,
      "fo": 1589,
      "ling": 1590,
      "15": 1591,
      "thy": 1592,
      "ms": 1593,
      "ics": 1594,
      "With": 1595,
      "gi": 1596,
      "bur": 1597,
      "ired": 1598,
      "near": 1599,
      "num": 1600,
      "equ": 1601,
      "bit": 1602,
      "Cl": 1603,
      "book": 1604,
      "list": 1605,
      "mind": 1606,
      "round": 1607,
      "kind": 1608,
      "young": 1609,
      "ield": 1610,
      "hu": 1611,
      "since": 1612,
      "Miss": 1613,
      "blo": 1614,
      "adv": 1615,
      "week": 1616,
      "sign": 1617,
      "ross": 1618,
      "ters": 1619,
      "called": 1620,
      "oth": 1621,
      "gre": 1622,
      "room": 1623,
      "mean": 1624,
      "ists": 1625,
      "ls": 1626,
      "once": 1627,
      "care": 1628,
      "hold": 1629,
      "ually": 1630,
      "allow": 1631,
      "unt": 1632,
      "ither": 1633,
      "love": 1634,
      "enough": 1635,
      "ately": 1636,
      "line": 1637,
      "stud": 1638,
      "left": 1639,
      "12": 1640,
      "cal": 1641,
      "produ": 1642,
      "around": 1643,
      "public": 1644,
      "vest": 1645,
      "ste": 1646,
      "Com": 1647,
      "quite": 1648,
      "bed": 1649,
      "ution": 1650,
      "seen": 1651,
      "All": 1652,
      "30": 1653,
      "reason": 1654,
      "akes": 1655,
      "ix": 1656,
      "offic": 1657,
      "ature": 1658,
      "aid": 1659,
      "ister": 1660,
      "done": 1661,
      "month": 1662,
      "sk": 1663,
      "heard": 1664,
      "mom": 1665,
      "half": 1666,
      "ane": 1667,
      "vol": 1668,
      "next": 1669,
      "gest": 1670,
      "ages": 1671,
      "augh": 1672,
      "erest": 1673,
      "peri": 1674,
      "plain": 1675,
      "pur": 1676,
      "ret": 1677,
      "ider": 1678,
      "cover": 1679,
      "ants": 1680,
      "open": 1681,
      "says": 1682,
      "ier": 1683,
      "Trump": 1684,
      "Of": 1685,
      "cu": 1686,
      "ye": 1687,
      "11": 1688,
      "ady": 1689,
      "sum": 1690,
      "bus": 1691,
      "ement": 1692,
      "seemed": 1693,
      "order": 1694,
      "ised": 1695,
      "Le": 1696,
      "ons": 1697,
      "ably": 1698,
      "certain": 1699,
      "hear": 1700,
      "ety": 1701,
      "support": 1702,
      "),": 1703,
      "ned": 1704,
      "olog": 1705,
      "belie": 1706,
      "father": 1707,
      "plo": 1708,
      "includ": 1709,
      "wards": 1710,
      "eas": 1711,
      "fic": 1712,
      "ism": 1713,
      "keep": 1714,
      "Sy": 1715,
      "stem": 1716,
      "itu": 1717,
      "My": 1718,
      "Nor": 1719,
      "ref": 1720,
      "mother": 1721,
      "ended": 1722,
      "ca": 1723,
      "ets": 1724,
      "His": 1725,
      "game": 1726,
      "ax": 1727,
      "interest": 1728,
      "18": 1729,
      "took": 1730,
      "ese": 1731,
      "vent": 1732,
      "ster": 1733,
      "prom": 1734,
      "heart": 1735,
      "hour": 1736,
      "arri": 1737,
      "direct": 1738,
      "big": 1739,
      "King": 1740,
      "tem": 1741,
      "Or": 1742,
      "ah": 1743,
      "ices": 1744,
      "known": 1745,
      "Ger": 1746,
      "fil": 1747,
      "almost": 1748,
      "rep": 1749,
      "arr": 1750,
      "ime": 1751,
      "name": 1752,
      "respon": 1753,
      "Oh": 1754,
      "mil": 1755,
      "clear": 1756,
      "return": 1757,
      "top": 1758,
      "gy": 1759,
      "io": 1760,
      "team": 1761,
      "country": 1762,
      "walk": 1763,
      "prov": 1764,
      "ond": 1765,
      "ather": 1766,
      "met": 1767,
      "claim": 1768,
      "trans": 1769,
      "sw": 1770,
      "ames": 1771,
      "polit": 1772,
      "posed": 1773,
      "however": 1774,
      "whe": 1775,
      "ces": 1776,
      "looked": 1777,
      "25": 1778,
      "ley": 1779,
      "requ": 1780,
      "lot": 1781,
      "rather": 1782,
      "ues": 1783,
      "four": 1784,
      "ger": 1785,
      "expect": 1786,
      "iting": 1787,
      "full": 1788,
      "using": 1789,
      "invest": 1790,
      "raw": 1791,
      "different": 1792,
      "small": 1793,
      "coming": 1794,
      "God": 1795,
      "elt": 1796,
      "ER": 1797,
      "incre": 1798,
      "Ro": 1799,
      "whole": 1800,
      "orn": 1801,
      "ute": 1802,
      "ground": 1803,
      "herself": 1804,
      "14": 1805,
      "rece": 1806,
      "gether": 1807,
      "eyes": 1808,
      "appro": 1809,
      "often": 1810,
      "Ad": 1811,
      "moment": 1812,
      "comple": 1813,
      "ending": 1814,
      "lay": 1815,
      "oud": 1816,
      "outh": 1817,
      "miss": 1818,
      "days": 1819,
      "possible": 1820,
      "ats": 1821,
      "16": 1822,
      "having": 1823,
      "issu": 1824,
      "velo": 1825,
      "partic": 1826,
      "17": 1827,
      "case": 1828,
      "course": 1829,
      "ost": 1830,
      "sat": 1831,
      "wind": 1832,
      "ives": 1833,
      "second": 1834,
      "why": 1835,
      "together": 1836,
      "illion": 1837,
      "pose": 1838,
      "plan": 1839,
      "during": 1840,
      "pay": 1841,
      "government": 1842,
      "ones": 1843,
      "cri": 1844,
      "bers": 1845,
      "def": 1846,
      "test": 1847,
      "change": 1848,
      "grow": 1849,
      "lim": 1850,
      "ically": 1851,
      "ris": 1852,
      "aren": 1853,
      "West": 1854,
      "ided": 1855,
      "post": 1856,
      ".--": 1857,
      "least": 1858,
      "death": 1859,
      "net": 1860,
      "field": 1861,
      "Sh": 1862,
      "water": 1863,
      "large": 1864,
      "spo": 1865,
      "among": 1866,
      "asked": 1867,
      "Joh": 1868,
      "Now": 1869,
      "Col": 1870,
      "sho": 1871,
      "answ": 1872,
      "sil": 1873,
      "family": 1874,
      "system": 1875,
      "chool": 1876,
      "creat": 1877,
      "sent": 1878,
      "camp": 1879,
      "ped": 1880,
      "import": 1881,
      "dou": 1882,
      "matter": 1883,
      "gent": 1884,
      "free": 1885,
      "sea": 1886,
      "grou": 1887,
      "empt": 1888,
      "ird": 1889,
      "whale": 1890,
      "meet": 1891,
      "John": 1892,
      "children": 1893,
      "oney": 1894,
      "uc": 1895,
      "Then": 1896,
      "aken": 1897,
      "fair": 1898,
      "move": 1899,
      "thou": 1900,
      "ides": 1901,
      "El": 1902,
      "dri": 1903,
      "cording": 1904,
      "wa": 1905,
      "alth": 1906,
      "tw": 1907,
      "woman": 1908,
      "ney": 1909,
      "50": 1910,
      "sever": 1911,
      "Af": 1912,
      "stop": 1913,
      "looking": 1914,
      "king": 1915,
      "org": 1916,
      "fun": 1917,
      "fall": 1918,
      "season": 1919,
      "une": 1920,
      "13": 1921,
      "vil": 1922,
      "remain": 1923,
      "kill": 1924,
      "atur": 1925,
      "US": 1926,
      "strong": 1927,
      "ele": 1928,
      "search": 1929,
      "fully": 1930,
      "sl": 1931,
      "past": 1932,
      "conf": 1933,
      "ient": 1934,
      "que": 1935,
      "believe": 1936,
      "Do": 1937,
      "selves": 1938,
      "Emma": 1939,
      "ball": 1940,
      "Eng": 1941,
      "ched": 1942,
      "ove": 1943,
      "ying": 1944,
      "dat": 1945,
      "ull": 1946,
      "cas": 1947,
      "felt": 1948,
      "ering": 1949,
      "count": 1950,
      "Gr": 1951,
      "ene": 1952,
      "voice": 1953,
      "ont": 1954,
      "story": 1955,
      "comes": 1956,
      "member": 1957,
      "ric": 1958,
      "gram": 1959,
      "didn": 1960,
      "others": 1961,
      "resul": 1962,
      "ows": 1963,
      "cried": 1964,
      "business": 1965,
      "One": 1966,
      "making": 1967,
      "already": 1968,
      "words": 1969,
      "ama": 1970,
      "else": 1971,
      "inform": 1972,
      "commun": 1973,
      "given": 1974,
      "thee": 1975,
      "thor": 1976,
      "ined": 1977,
      "lig": 1978,
      "company": 1979,
      "dro": 1980,
      "ife": 1981,
      "watch": 1982,
      "haps": 1983,
      "hope": 1984,
      "stre": 1985,
      "stru": 1986,
      "prof": 1987,
      "short": 1988,
      "Bis": 1989,
      "aven": 1990,
      "rele": 1991,
      "position": 1992,
      "late": 1993,
      "rist": 1994,
      "percent": 1995,
      "cannot": 1996,
      "stood": 1997,
      "morning": 1998,
      "ances": 1999,
      "tow": 2000,
      "along": 2001,
      "aster": 2002,
      "party": 2003,
      "suc": 2004,
      "began": 2005,
      "soci": 2006,
      "ru": 2007,
      "develo": 2008,
      "understand": 2009,
      "ze": 2010,
      "marck": 2011,
      "Bismarck": 2012,
      "ived": 2013,
      "number": 2014,
      "uni": 2015,
      "wood": 2016,
      "lied": 2017,
      "myself": 2018,
      "Prussi": 2019,
      "Cap": 2020,
      "cir": 2021,
      "imes": 2022,
      "pleas": 2023,
      "40": 2024,
      "knew": 2025,
      "deal": 2026,
      "whether": 2027,
      "mid": 2028,
      "till": 2029,
      "draw": 2030,
      "Not": 2031,
      "human": 2032,
      "hind": 2033,
      "roll": 2034,
      "indeed": 2035,
      "question": 2036,
      "47": 2037,
      "mus": 2038,
      "wish": 2039,
      "chang": 2040,
      "sup": 2041,
      "oper": 2042,
      "close": 2043,
      "money": 2044,
      "sun": 2045,
      "white": 2046,
      "within": 2047,
      "swe": 2048,
      "school": 2049,
      "Rep": 2050,
      "acy": 2051,
      "----": 2052,
      "cus": 2053,
      "resident": 2054,
      "TH": 2055,
      "ized": 2056,
      "consider": 2057,
      "var": 2058,
      "wit": 2059,
      "ago": 2060,
      "effect": 2061,
      "Co": 2062,
      "aut": 2063,
      "sound": 2064,
      "charac": 2065,
      "35": 2066,
      "Li": 2067,
      "hy": 2068,
      "exam": 2069,
      "lear": 2070,
      "plac": 2071,
      "By": 2072,
      "bar": 2073,
      "polic": 2074,
      "pat": 2075,
      "bring": 2076,
      "Gre": 2077,
      "mis": 2078,
      "inal": 2079,
      "whom": 2080,
      "ards": 2081,
      "black": 2082,
      "spir": 2083,
      "Bl": 2084,
      "doing": 2085,
      "national": 2086,
      "win": 2087,
      "vel": 2088,
      "band": 2089,
      "Why": 2090,
      "ots": 2091,
      "spect": 2092,
      "nal": 2093,
      "priv": 2094,
      "particular": 2095,
      "aring": 2096,
      "Sp": 2097,
      "poor": 2098,
      "rent": 2099,
      "build": 2100,
      "attack": 2101,
      "speak": 2102,
      "har": 2103,
      "!--": 2104,
      "women": 2105,
      "times": 2106,
      "bad": 2107,
      "000000": 2108,
      "fur": 2109,
      "fell": 2110,
      "hor": 2111,
      "22": 2112,
      "Pro": 2113,
      "cret": 2114,
      "enter": 2115,
      "pret": 2116,
      "row": 2117,
      "friends": 2118,
      "sort": 2119,
      "American": 2120,
      "vious": 2121,
      "live": 2122,
      "anything": 2123,
      "jud": 2124,
      "por": 2125,
      "ran": 2126,
      "sou": 2127,
      "key": 2128,
      "happy": 2129,
      "boy": 2130,
      "class": 2131,
      "anger": 2132,
      "bal": 2133,
      "aged": 2134,
      "ken": 2135,
      "action": 2136,
      ".[": 2137,
      "ror": 2138,
      "taken": 2139,
      "prot": 2140,
      "ral": 2141,
      "ency": 2142,
      "Ed": 2143,
      "medi": 2144,
      "social": 2145,
      "Don": 2146,
      "ital": 2147,
      "door": 2148,
      "behind": 2149,
      "chn": 2150,
      "means": 2151,
      "thus": 2152,
      "step": 2153,
      "ured": 2154,
      "conom": 2155,
      "concer": 2156,
      "ision": 2157,
      "Can": 2158,
      "Well": 2159,
      "atic": 2160,
      "bt": 2161,
      "spec": 2162,
      "Aust": 2163,
      "fac": 2164,
      "including": 2165,
      "former": 2166,
      "jor": 2167,
      "fire": 2168,
      "tru": 2169,
      "Her": 2170,
      "gave": 2171,
      "idence": 2172,
      "true": 2173,
      "hist": 2174,
      "proble": 2175,
      "hands": 2176,
      "five": 2177,
      "Ex": 2178,
      "pend": 2179,
      "uro": 2180,
      "plic": 2181,
      "Mo": 2182,
      "become": 2183,
      "fav": 2184,
      "later": 2185,
      "Min": 2186,
      "sed": 2187,
      "02": 2188,
      "lish": 2189,
      "Par": 2190,
      "dark": 2191,
      "either": 2192,
      "joy": 2193,
      "sle": 2194,
      "Fl": 2195,
      "tre": 2196,
      "oft": 2197,
      "dear": 2198,
      "dead": 2199,
      "ability": 2200,
      "important": 2201,
      "urch": 2202,
      "elect": 2203,
      "data": 2204,
      "aign": 2205,
      "iled": 2206,
      "pop": 2207,
      "flu": 2208,
      "fast": 2209,
      "prob": 2210,
      "compan": 2211,
      "pain": 2212,
      "After": 2213,
      "Ob": 2214,
      "orig": 2215,
      "Im": 2216,
      "gen": 2217,
      "sug": 2218,
      "Elin": 2219,
      "cell": 2220,
      "turned": 2221,
      "Elinor": 2222,
      "break": 2223,
      "group": 2224,
      "cy": 2225,
      "ians": 2226,
      "ery": 2227,
      "Bo": 2228,
      "hab": 2229,
      "themselves": 2230,
      "viol": 2231,
      "fre": 2232,
      "perfect": 2233,
      "news": 2234,
      "May": 2235,
      "police": 2236,
      "appear": 2237,
      "iter": 2238,
      "road": 2239,
      "program": 2240,
      "IS": 2241,
      "27": 2242,
      "acc": 2243,
      "Lord": 2244,
      "ben": 2245,
      "kes": 2246,
      "ison": 2247,
      "million": 2248,
      "stit": 2249,
      "ief": 2250,
      "six": 2251,
      "recent": 2252,
      "begin": 2253,
      "organ": 2254,
      "wonder": 2255,
      "city": 2256,
      "fight": 2257,
      "ging": 2258,
      "mist": 2259,
      "46": 2260,
      "saying": 2261,
      "ences": 2262,
      "until": 2263,
      "perhaps": 2264,
      "ler": 2265,
      "worth": 2266,
      "En": 2267,
      "held": 2268,
      "whose": 2269,
      "continu": 2270,
      "Man": 2271,
      "Per": 2272,
      "Car": 2273,
      "itary": 2274,
      "train": 2275,
      "experi": 2276,
      "econom": 2277,
      "dem": 2278,
      "Russi": 2279,
      "towards": 2280,
      "ament": 2281,
      "la": 2282,
      "ional": 2283,
      "campaign": 2284,
      "45": 2285,
      "cost": 2286,
      "iving": 2287,
      "ales": 2288,
      "gone": 2289,
      "ening": 2290,
      "design": 2291,
      "37": 2292,
      "ina": 2293,
      "amed": 2294,
      "treat": 2295,
      "entire": 2296,
      "Marian": 2297,
      "26": 2298,
      "gir": 2299,
      "mocr": 2300,
      "actually": 2301,
      "taking": 2302,
      "foot": 2303,
      "Here": 2304,
      "Ind": 2305,
      "Mus": 2306,
      "idea": 2307,
      "president": 2308,
      "cast": 2309,
      "leave": 2310,
      "ustom": 2311,
      "reach": 2312,
      "ee": 2313,
      "proper": 2314,
      "process": 2315,
      "AP": 2316,
      "sty": 2317,
      "forward": 2318,
      "early": 2319,
      "State": 2320,
      "likely": 2321,
      "Some": 2322,
      "Marianne": 2323,
      "bs": 2324,
      "contr": 2325,
      "major": 2326,
      "information": 2327,
      "gain": 2328,
      "decl": 2329,
      "town": 2330,
      "Ham": 2331,
      "ality": 2332,
      "imm": 2333,
      "techn": 2334,
      "added": 2335,
      "ines": 2336,
      "ali": 2337,
      "general": 2338,
      "vir": 2339,
      "quick": 2340,
      "itself": 2341,
      "omet": 2342,
      "AT": 2343,
      "author": 2344,
      "success": 2345,
      "Pol": 2346,
      "stri": 2347,
      "sib": 2348,
      "ator": 2349,
      "complete": 2350,
      "Wor": 2351,
      "dre": 2352,
      "Go": 2353,
      "several": 2354,
      "acqu": 2355,
      "imp": 2356,
      "itting": 2357,
      "President": 2358,
      "ks": 2359,
      "adm": 2360,
      "ouch": 2361,
      "tra": 2362,
      "AN": 2363,
      "earth": 2364,
      "28": 2365,
      "sen": 2366,
      "hoto": 2367,
      "official": 2368,
      ",'": 2369,
      "grap": 2370,
      "wanted": 2371,
      "Sir": 2372,
      "across": 2373,
      "brought": 2374,
      "States": 2375,
      "laugh": 2376,
      "ention": 2377,
      "ently": 2378,
      "ceed": 2379,
      "Yes": 2380,
      "ony": 2381,
      "While": 2382,
      "doesn": 2383,
      "ible": 2384,
      "Coun": 2385,
      "bey": 2386,
      "ott": 2387,
      "dest": 2388,
      "IN": 2389,
      "based": 2390,
      "ration": 2391,
      "contro": 2392,
      "From": 2393,
      "Captain": 2394,
      "makes": 2395,
      "spr": 2396,
      "bas": 2397,
      "These": 2398,
      "199": 2399,
      "Christ": 2400,
      "29": 2401,
      "pot": 2402,
      "object": 2403,
      "enn": 2404,
      "stay": 2405,
      "immedi": 2406,
      "working": 2407,
      "ology": 2408,
      ".)": 2409,
      "Po": 2410,
      "Sm": 2411,
      "hop": 2412,
      "accept": 2413,
      "lost": 2414,
      "flo": 2415,
      "health": 2416,
      "common": 2417,
      "front": 2418,
      "fear": 2419,
      ".,": 2420,
      "Sun": 2421,
      "sex": 2422,
      "utes": 2423,
      "fig": 2424,
      "tax": 2425,
      "emplo": 2426,
      "24": 2427,
      "exp": 2428,
      "Fe": 2429,
      "usu": 2430,
      "del": 2431,
      "deep": 2432,
      "pie": 2433,
      "conne": 2434,
      "ference": 2435,
      "Dr": 2436,
      "Ph": 2437,
      "attempt": 2438,
      "cil": 2439,
      "character": 2440,
      "job": 2441,
      "sense": 2442,
      "according": 2443,
      "board": 2444,
      "curity": 2445,
      "alter": 2446,
      "gentle": 2447,
      "above": 2448,
      "longer": 2449,
      "investig": 2450,
      "natur": 2451,
      "tar": 2452,
      "ingly": 2453,
      "activ": 2454,
      "mot": 2455,
      "seems": 2456,
      "vot": 2457,
      "alone": 2458,
      "ford": 2459,
      "dom": 2460,
      "fut": 2461,
      "Let": 2462,
      "ribut": 2463,
      "necess": 2464,
      "inton": 2465,
      "stor": 2466,
      "itive": 2467,
      "lies": 2468,
      "Anne": 2469,
      "suggest": 2470,
      "inc": 2471,
      "months": 2472,
      "account": 2473,
      "hur": 2474,
      "ensive": 2475,
      "current": 2476,
      "ung": 2477,
      "political": 2478,
      "Euro": 2479,
      "mine": 2480,
      "ize": 2481,
      "hours": 2482,
      "itted": 2483,
      "70": 2484,
      "ands": 2485,
      "cially": 2486,
      "getting": 2487,
      "23": 2488,
      "attle": 2489,
      "Me": 2490,
      "letter": 2491,
      "trying": 2492,
      "situ": 2493,
      "subject": 2494,
      "div": 2495,
      "Star": 2496,
      "AR": 2497,
      "meas": 2498,
      "quar": 2499,
      "invol": 2500,
      "serious": 2501,
      "CH": 2502,
      "House": 2503,
      "ination": 2504,
      "respect": 2505,
      "everything": 2506,
      "regard": 2507,
      "Mon": 2508,
      "force": 2509,
      "aft": 2510,
      "doubt": 2511,
      "sor": 2512,
      "market": 2513,
      "diffic": 2514,
      "eye": 2515,
      "answer": 2516,
      "dden": 2517,
      "eder": 2518,
      "today": 2519,
      "express": 2520,
      "ges": 2521,
      "table": 2522,
      "visit": 2523,
      "Bar": 2524,
      "sci": 2525,
      "research": 2526,
      "aff": 2527,
      "Am": 2528,
      "descri": 2529,
      "gress": 2530,
      "wife": 2531,
      "--\"": 2532,
      "project": 2533,
      "explain": 2534,
      "sister": 2535,
      "reme": 2536,
      "ified": 2537,
      "passed": 2538,
      "Ab": 2539,
      "riage": 2540,
      "policy": 2541,
      "flow": 2542,
      "mess": 2543,
      "remember": 2544,
      "sight": 2545,
      "sudden": 2546,
      "pped": 2547,
      "future": 2548,
      "Brit": 2549,
      "Lady": 2550,
      "anim": 2551,
      "uff": 2552,
      "ites": 2553,
      "opin": 2554,
      "Ac": 2555,
      "event": 2556,
      "Clinton": 2557,
      "glo": 2558,
      "rup": 2559,
      "pap": 2560,
      "scre": 2561,
      "...": 2562,
      "fill": 2563,
      "vide": 2564,
      "itch": 2565,
      "military": 2566,
      "ib": 2567,
      "ivers": 2568,
      "ury": 2569,
      "ilt": 2570,
      "deter": 2571,
      "__": 2572,
      "custom": 2573,
      "uary": 2574,
      "edit": 2575,
      "comfort": 2576,
      "ners": 2577,
      "song": 2578,
      "ades": 2579,
      "ager": 2580,
      "develop": 2581,
      "surpr": 2582,
      "60": 2583,
      "music": 2584,
      "Europe": 2585,
      "aves": 2586,
      "Ser": 2587,
      "ising": 2588,
      "sequ": 2589,
      "ries": 2590,
      "German": 2591,
      "brother": 2592,
      "Syme": 2593,
      "beaut": 2594,
      "wrong": 2595,
      ".'": 2596,
      "Harri": 2597,
      "heav": 2598,
      "crit": 2599,
      "service": 2600,
      "Republic": 2601,
      "sail": 2602,
      "33": 2603,
      "record": 2604,
      "uel": 2605,
      "However": 2606,
      "United": 2607,
      "vert": 2608,
      "Obama": 2609,
      "Que": 2610,
      "ron": 2611,
      "probably": 2612,
      "bor": 2613,
      "pick": 2614,
      "ert": 2615,
      "Heaven": 2616,
      "started": 2617,
      "Harriet": 2618,
      "cum": 2619,
      "iet": 2620,
      "except": 2621,
      "members": 2622,
      "thous": 2623,
      "pract": 2624,
      "Brown": 2625,
      "expected": 2626,
      "tom": 2627,
      "80": 2628,
      "cks": 2629,
      "court": 2630,
      "Ahab": 2631,
      "Lo": 2632,
      "ech": 2633,
      "living": 2634,
      "bes": 2635,
      "imag": 2636,
      "Who": 2637,
      "replied": 2638,
      "urs": 2639,
      "media": 2640,
      "blood": 2641,
      "100": 2642,
      "Har": 2643,
      "antly": 2644,
      "minutes": 2645,
      "pretty": 2646,
      "became": 2647,
      "ometimes": 2648,
      "easy": 2649,
      "dle": 2650,
      "wise": 2651,
      "opt": 2652,
      "itude": 2653,
      "Just": 2654,
      "lying": 2655,
      "exact": 2656,
      "soul": 2657,
      "wide": 2658,
      "discus": 2659,
      "received": 2660,
      "eg": 2661,
      "repe": 2662,
      "Lou": 2663,
      "RE": 2664,
      "ffer": 2665,
      "fish": 2666,
      "therefore": 2667,
      "ns": 2668,
      "mass": 2669,
      "ential": 2670,
      "nes": 2671,
      "eter": 2672,
      "works": 2673,
      "49": 2674,
      "Ang": 2675,
      "ends": 2676,
      "single": 2677,
      "continued": 2678,
      "ded": 2679,
      "level": 2680,
      "rench": 2681,
      "Sc": 2682,
      "itions": 2683,
      "box": 2684,
      "ashing": 2685,
      "Cr": 2686,
      "hon": 2687,
      "mag": 2688,
      "example": 2689,
      "sir": 2690,
      "bert": 2691,
      "issue": 2692,
      "AS": 2693,
      "Ber": 2694,
      "ams": 2695,
      "sleep": 2696,
      "ba": 2697,
      "gun": 2698,
      "ude": 2699,
      "moder": 2700,
      "moved": 2701,
      "Where": 2702,
      "evening": 2703,
      "aint": 2704,
      "running": 2705,
      "Will": 2706,
      "rul": 2707,
      "espe": 2708,
      "America": 2709,
      "mur": 2710,
      "threat": 2711,
      "wrote": 2712,
      "following": 2713,
      "appeared": 2714,
      "Prussia": 2715,
      "gard": 2716,
      "sess": 2717,
      "trad": 2718,
      "arms": 2719,
      "comb": 2720,
      "satis": 2721,
      "ON": 2722,
      "tal": 2723,
      "kept": 2724,
      "ously": 2725,
      "inste": 2726,
      "cross": 2727,
      "third": 2728,
      "local": 2729,
      "collect": 2730,
      "share": 2731,
      "especially": 2732,
      "bot": 2733,
      "bank": 2734,
      "agre": 2735,
      "dam": 2736,
      "2015": 2737,
      "Frank": 2738,
      "further": 2739,
      "fund": 2740,
      "influ": 2741,
      "ria": 2742,
      "Char": 2743,
      "Pe": 2744,
      "ik": 2745,
      "ples": 2746,
      "approach": 2747,
      "ham": 2748,
      "Inter": 2749,
      "happened": 2750,
      "colle": 2751,
      "suffer": 2752,
      "cked": 2753,
      "history": 2754,
      "firm": 2755,
      "certainly": 2756,
      "unch": 2757,
      "safe": 2758,
      "ender": 2759,
      "North": 2760,
      "Gover": 2761,
      "danger": 2762,
      "fix": 2763,
      "host": 2764,
      "minist": 2765,
      "mber": 2766,
      "rid": 2767,
      "sto": 2768,
      "chief": 2769,
      "result": 2770,
      "prove": 2771,
      "avail": 2772,
      "duct": 2773,
      "film": 2774,
      "English": 2775,
      "Mc": 2776,
      "bill": 2777,
      "gs": 2778,
      "pen": 2779,
      "bell": 2780,
      "peace": 2781,
      "indust": 2782,
      "sett": 2783,
      "decision": 2784,
      "ring": 2785,
      "space": 2786,
      "inj": 2787,
      "secret": 2788,
      "problem": 2789,
      "mal": 2790,
      "ators": 2791,
      "White": 2792,
      "instead": 2793,
      "Mac": 2794,
      "gn": 2795,
      "ox": 2796,
      "security": 2797,
      "ively": 2798,
      "Democr": 2799,
      "ban": 2800,
      "lad": 2801,
      "ift": 2802,
      "II": 2803,
      "bi": 2804,
      "Twit": 2805,
      "slow": 2806,
      "anx": 2807,
      "conv": 2808,
      "sem": 2809,
      "sold": 2810,
      "moun": 2811,
      "ply": 2812,
      "rate": 2813,
      "resol": 2814,
      "turning": 2815,
      "struct": 2816,
      "Knight": 2817,
      "thod": 2818,
      "icle": 2819,
      "girl": 2820,
      "39": 2821,
      "65": 2822,
      "Wood": 2823,
      "cul": 2824,
      "hip": 2825,
      "ails": 2826,
      "Dav": 2827,
      "cup": 2828,
      "ork": 2829,
      "dev": 2830,
      "announ": 2831,
      "ald": 2832,
      "cop": 2833,
      "represent": 2834,
      "lady": 2835,
      "isn": 2836,
      "exc": 2837,
      "feet": 2838,
      "intro": 2839,
      "yourself": 2840,
      "series": 2841,
      "thinking": 2842,
      "Twitter": 2843,
      "fine": 2844,
      "compet": 2845,
      "address": 2846,
      "jour": 2847,
      "legal": 2848,
      "non": 2849,
      "beha": 2850,
      "tries": 2851,
      "Weston": 2852,
      "daugh": 2853,
      "iety": 2854,
      "nature": 2855,
      "ilar": 2856,
      "content": 2857,
      "covered": 2858,
      "immediately": 2859,
      "Pl": 2860,
      "Ear": 2861,
      "ecut": 2862,
      "tro": 2863,
      "exist": 2864,
      "itional": 2865,
      "truth": 2866,
      "aving": 2867,
      "Smith": 2868,
      "situation": 2869,
      "rap": 2870,
      "inv": 2871,
      "argu": 2872,
      "hair": 2873,
      "outside": 2874,
      "push": 2875,
      "talking": 2876,
      "THE": 2877,
      "cou": 2878,
      "stra": 2879,
      "due": 2880,
      "lie": 2881,
      "appoint": 2882,
      "TER": 2883,
      "super": 2884,
      "Germany": 2885,
      "beyond": 2886,
      "gold": 2887,
      "ivid": 2888,
      "create": 2889,
      "Cor": 2890,
      "liber": 2891,
      "sour": 2892,
      "neigh": 2893,
      "boat": 2894,
      "reported": 2895,
      "France": 2896,
      "control": 2897,
      "squ": 2898,
      "agree": 2899,
      "convers": 2900,
      "Alice": 2901,
      "Isra": 2902,
      "natural": 2903,
      "bow": 2904,
      "log": 2905,
      "nearly": 2906,
      "ES": 2907,
      "Jack": 2908,
      "nation": 2909,
      "sport": 2910,
      "angu": 2911,
      "ordin": 2912,
      "Res": 2913,
      "cand": 2914,
      "defin": 2915,
      "load": 2916,
      "sell": 2917,
      "Tur": 2918,
      "ially": 2919,
      "tried": 2920,
      "uses": 2921,
      "aste": 2922,
      "command": 2923,
      "Louis": 2924,
      "aul": 2925,
      "els": 2926,
      "shot": 2927,
      "standing": 2928,
      "video": 2929,
      "lab": 2930,
      "Lon": 2931,
      "Mic": 2932,
      "chance": 2933,
      "attention": 2934,
      "Church": 2935,
      "reco": 2936,
      "agement": 2937,
      "ained": 2938,
      "0136": 2939,
      "ption": 2940,
      "introdu": 2941,
      "French": 2942,
      "sometimes": 2943,
      "ague": 2944,
      "iful": 2945,
      "itten": 2946,
      "extreme": 2947,
      "path": 2948,
      "tree": 2949,
      "South": 2950,
      "study": 2951,
      "profess": 2952,
      "21": 2953,
      "illi": 2954,
      "mention": 2955,
      "Ge": 2956,
      "foreign": 2957,
      "points": 2958,
      "Elton": 2959,
      "38": 2960,
      "smo": 2961,
      "circum": 2962,
      "Ju": 2963,
      "ires": 2964,
      "ium": 2965,
      "ids": 2966,
      "forth": 2967,
      "goes": 2968,
      "private": 2969,
      "75": 2970,
      "match": 2971,
      "previous": 2972,
      "strange": 2973,
      "Sen": 2974,
      "Sus": 2975,
      "special": 2976,
      "games": 2977,
      "access": 2978,
      "avo": 2979,
      "London": 2980,
      "sal": 2981,
      "wel": 2982,
      "unity": 2983,
      "pleasure": 2984,
      "Gu": 2985,
      "ked": 2986,
      "yed": 2987,
      "desp": 2988,
      "decided": 2989,
      "meeting": 2990,
      "original": 2991,
      "fail": 2992,
      "feeling": 2993,
      "none": 2994,
      "separ": 2995,
      "iding": 2996,
      "wasn": 2997,
      "delight": 2998,
      "crim": 2999,
      "mission": 3000,
      "Mary": 3001,
      "fle": 3002,
      "giving": 3003,
      "anal": 3004,
      "star": 3005,
      "simple": 3006,
      "green": 3007,
      "sweet": 3008,
      "34": 3009,
      "sn": 3010,
      "opinion": 3011,
      "rights": 3012,
      "benef": 3013,
      "pict": 3014,
      "ours": 3015,
      "sym": 3016,
      "Univers": 3017,
      "difficult": 3018,
      "//": 3019,
      "carry": 3020,
      "behavi": 3021,
      "opport": 3022,
      "cold": 3023,
      "office": 3024,
      "looks": 3025,
      "ancy": 3026,
      "allowed": 3027,
      "available": 3028,
      "55": 3029,
      "hum": 3030,
      "ships": 3031,
      "Father": 3032,
      "din": 3033,
      "photo": 3034,
      "rain": 3035,
      "obser": 3036,
      "undred": 3037,
      "York": 3038,
      "ization": 3039,
      "bul": 3040,
      "susp": 3041,
      "perm": 3042,
      "civil": 3043,
      "phone": 3044,
      "Qu": 3045,
      "gro": 3046,
      "ior": 3047,
      "cred": 3048,
      "mult": 3049,
      "conduct": 3050,
      "possib": 3051,
      "ledge": 3052,
      "favour": 3053,
      "graph": 3054,
      "AL": 3055,
      "ding": 3056,
      "touch": 3057,
      "cher": 3058,
      "energy": 3059,
      "product": 3060,
      "experience": 3061,
      "Knightley": 3062,
      "lam": 3063,
      "trave": 3064,
      "speech": 3065,
      "formed": 3066,
      "final": 3067,
      "pet": 3068,
      "Face": 3069,
      "players": 3070,
      "connect": 3071,
      "race": 3072,
      "ulation": 3073,
      "hood": 3074,
      "lines": 3075,
      "ederal": 3076,
      "32": 3077,
      "link": 3078,
      "wild": 3079,
      "ify": 3080,
      "reng": 3081,
      "consci": 3082,
      "Up": 3083,
      "below": 3084,
      "Government": 3085,
      "Every": 3086,
      "hundred": 3087,
      "pes": 3088,
      "educ": 3089,
      "rig": 3090,
      "const": 3091,
      "feat": 3092,
      "affect": 3093,
      "Stre": 3094,
      "relation": 3095,
      "claimed": 3096,
      "rad": 3097,
      "relig": 3098,
      "forman": 3099,
      "seeing": 3100,
      "target": 3101,
      "Fir": 3102,
      "mere": 3103,
      "iday": 3104,
      "anti": 3105,
      "intel": 3106,
      "leaders": 3107,
      "0236": 3108,
      "War": 3109,
      "itation": 3110,
      "execut": 3111,
      "personal": 3112,
      "GO": 3113,
      "Hill": 3114,
      "deb": 3115,
      "broad": 3116,
      "spoke": 3117,
      "hun": 3118,
      "lif": 3119,
      "playing": 3120,
      "?--": 3121,
      "aver": 3122,
      "food": 3123,
      "hit": 3124,
      "zz": 3125,
      "ears": 3126,
      "2012": 3127,
      "2016": 3128,
      ",--": 3129,
      "Sup": 3130,
      "mad": 3131,
      "tt": 3132,
      "played": 3133,
      "arent": 3134,
      "Dep": 3135,
      "rich": 3136,
      "loss": 3137,
      "meant": 3138,
      "atever": 3139,
      "necessary": 3140,
      "pul": 3141,
      "aming": 3142,
      "terror": 3143,
      "anced": 3144,
      "famil": 3145,
      "curi": 3146,
      "--------": 3147,
      "request": 3148,
      "manner": 3149,
      "World": 3150,
      "bound": 3151,
      "soft": 3152,
      "imate": 3153,
      "crow": 3154,
      "counter": 3155,
      "written": 3156,
      "weeks": 3157,
      "Sunday": 3158,
      "exactly": 3159,
      "EN": 3160,
      "streng": 3161,
      "amoun": 3162,
      "determin": 3163,
      "Cour": 3164,
      "More": 3165,
      "hus": 3166,
      "warm": 3167,
      "states": 3168,
      "prevent": 3169,
      "scri": 3170,
      "advant": 3171,
      "foc": 3172,
      "err": 3173,
      "Facebook": 3174,
      "Jan": 3175,
      "born": 3176,
      "omb": 3177,
      "page": 3178,
      "lives": 3179,
      "style": 3180,
      "vic": 3181,
      "fection": 3182,
      "individ": 3183,
      "2014": 3184,
      "community": 3185,
      "stitution": 3186,
      "National": 3187,
      "hat": 3188,
      "lier": 3189,
      "explo": 3190,
      "prin": 3191,
      "grand": 3192,
      "function": 3193,
      "beginning": 3194,
      "Des": 3195,
      "OR": 3196,
      "Washing": 3197,
      "sens": 3198,
      "tit": 3199,
      "trou": 3200,
      "performan": 3201,
      "needs": 3202,
      "feelings": 3203,
      "specific": 3204,
      "University": 3205,
      "AC": 3206,
      "bear": 3207,
      "similar": 3208,
      "48": 3209,
      "Your": 3210,
      "mouth": 3211,
      "countries": 3212,
      "occas": 3213,
      "!'": 3214,
      "publ": 3215,
      "yn": 3216,
      "rew": 3217,
      "enjoy": 3218,
      "exper": 3219,
      "evidence": 3220,
      "England": 3221,
      "Washington": 3222,
      "leng": 3223,
      "oil": 3224,
      "usion": 3225,
      "76": 3226,
      "fit": 3227,
      "van": 3228,
      "stat": 3229,
      "iment": 3230,
      "faith": 3231,
      "reading": 3232,
      "followed": 3233,
      "Ben": 3234,
      "code": 3235,
      "continue": 3236,
      "discuss": 3237,
      "High": 3238,
      "Red": 3239,
      "eight": 3240,
      "higher": 3241,
      "send": 3242,
      "onel": 3243,
      "suit": 3244,
      "coach": 3245,
      "questions": 3246,
      "value": 3247,
      "vill": 3248,
      "charge": 3249,
      "usual": 3250,
      "rupt": 3251,
      "daughter": 3252,
      ";--": 3253,
      "scr": 3254,
      "wall": 3255,
      "verse": 3256,
      "rock": 3257,
      "terms": 3258,
      "aling": 3259,
      "area": 3260,
      "track": 3261,
      "glad": 3262,
      "Canad": 3263,
      "aled": 3264,
      "depart": 3265,
      "someone": 3266,
      "thoughts": 3267,
      "bel": 3268,
      "nder": 3269,
      "ugg": 3270,
      "issues": 3271,
      "learn": 3272,
      "fellow": 3273,
      "seven": 3274,
      "loc": 3275,
      "protest": 3276,
      "31": 3277,
      "ctor": 3278,
      "simply": 3279,
      "99": 3280,
      "hardly": 3281,
      "Te": 3282,
      "battle": 3283,
      "langu": 3284,
      "quiet": 3285,
      "Ital": 3286,
      "nings": 3287,
      "signific": 3288,
      "released": 3289,
      "Black": 3290,
      "piece": 3291,
      "Mid": 3292,
      "Our": 3293,
      "ape": 3294,
      "pan": 3295,
      "ops": 3296,
      "Ne": 3297,
      "Their": 3298,
      "returned": 3299,
      "Jew": 3300,
      "Off": 3301,
      "Sep": 3302,
      "da": 3303,
      "ories": 3304,
      "chall": 3305,
      "nel": 3306,
      "estab": 3307,
      "everyone": 3308,
      "fresh": 3309,
      "figure": 3310,
      "Paul": 3311,
      "utter": 3312,
      "aging": 3313,
      "Comm": 3314,
      "communic": 3315,
      "companies": 3316,
      "Fair": 3317,
      "ilities": 3318,
      "offer": 3319,
      "spirit": 3320,
      "Ho": 3321,
      "Jane": 3322,
      "Ma": 3323,
      "concl": 3324,
      "cry": 3325,
      "protect": 3326,
      "Even": 3327,
      "ping": 3328,
      "alleg": 3329,
      "Ste": 3330,
      "please": 3331,
      "buck": 3332,
      "dress": 3333,
      "wed": 3334,
      "thers": 3335,
      "role": 3336,
      "lands": 3337,
      "consid": 3338,
      "March": 3339,
      "popular": 3340,
      "murder": 3341,
      "Street": 3342,
      "Come": 3343,
      "bly": 3344,
      "ds": 3345,
      "reve": 3346,
      "write": 3347,
      "glass": 3348,
      "shows": 3349,
      "circumst": 3350,
      "rian": 3351,
      "opened": 3352,
      "vision": 3353,
      "killed": 3354,
      "Day": 3355,
      "anyone": 3356,
      "interview": 3357,
      "join": 3358,
      "statement": 3359,
      "Prussian": 3360,
      "changed": 3361,
      "training": 3362,
      "date": 3363,
      "hom": 3364,
      "ancial": 3365,
      "weap": 3366,
      "First": 3367,
      "Aug": 3368,
      "mater": 3369,
      "anch": 3370,
      "enced": 3371,
      "suppose": 3372,
      "Yet": 3373,
      "je": 3374,
      "chan": 3375,
      "dog": 3376,
      "David": 3377,
      "slight": 3378,
      "ises": 3379,
      "fraid": 3380,
      "cloud": 3381,
      "blue": 3382,
      "version": 3383,
      "meaning": 3384,
      "Bre": 3385,
      "pack": 3386,
      "industry": 3387,
      "straight": 3388,
      "husband": 3389,
      "yal": 3390,
      "staff": 3391,
      "acted": 3392,
      "assist": 3393,
      "knows": 3394,
      "rough": 3395,
      "sec": 3396,
      "strate": 3397,
      "check": 3398,
      "middle": 3399,
      "Court": 3400,
      "bright": 3401,
      "bles": 3402,
      "stead": 3403,
      "Colonel": 3404,
      "57": 3405,
      "Post": 3406,
      "bb": 3407,
      "iers": 3408,
      "liament": 3409,
      "deli": 3410,
      "prep": 3411,
      "directly": 3412,
      "demand": 3413,
      "garden": 3414,
      "player": 3415,
      "building": 3416,
      "quickly": 3417,
      "officials": 3418,
      "wished": 3419,
      "aily": 3420,
      "evil": 3421,
      "period": 3422,
      "temper": 3423,
      "Elli": 3424,
      "Green": 3425,
      "Susan": 3426,
      "princi": 3427,
      "56": 3428,
      "Dan": 3429,
      "athe": 3430,
      "afraid": 3431,
      "hot": 3432,
      "inside": 3433,
      "depend": 3434,
      "Edward": 3435,
      "length": 3436,
      "docu": 3437,
      "craft": 3438,
      "lower": 3439,
      "speed": 3440,
      "comput": 3441,
      "regular": 3442,
      "Minister": 3443,
      "beautiful": 3444,
      "Pal": 3445,
      "takes": 3446,
      "thern": 3447,
      "size": 3448,
      "writing": 3449,
      "quarter": 3450,
      "repeated": 3451,
      "AM": 3452,
      "Sha": 3453,
      "trust": 3454,
      "actions": 3455,
      "ored": 3456,
      "crew": 3457,
      "cases": 3458,
      "dig": 3459,
      "belong": 3460,
      "leading": 3461,
      "easily": 3462,
      "particularly": 3463,
      "catch": 3464,
      "lived": 3465,
      "users": 3466,
      "antic": 3467,
      "artment": 3468,
      "prison": 3469,
      "worked": 3470,
      "purpose": 3471,
      "redu": 3472,
      "capt": 3473,
      "huge": 3474,
      "provide": 3475,
      "election": 3476,
      "society": 3477,
      "placed": 3478,
      "Woodhouse": 3479,
      "88": 3480,
      "90": 3481,
      "cab": 3482,
      "hill": 3483,
      "mort": 3484,
      "spent": 3485,
      "marriage": 3486,
      "scar": 3487,
      "scene": 3488,
      "drink": 3489,
      "growing": 3490,
      "release": 3491,
      "conversation": 3492,
      "administ": 3493,
      "2013": 3494,
      "summer": 3495,
      "Austral": 3496,
      "Jon": 3497,
      "init": 3498,
      "suspect": 3499,
      "olly": 3500,
      "gentleman": 3501,
      "Act": 3502,
      "Mi": 3503,
      "hous": 3504,
      "mit": 3505,
      "sad": 3506,
      "isher": 3507,
      "worse": 3508,
      "Whale": 3509,
      "brain": 3510,
      "created": 3511,
      "various": 3512,
      "Russia": 3513,
      "method": 3514,
      "emer": 3515,
      "deser": 3516,
      "built": 3517,
      "independ": 3518,
      "CHAP": 3519,
      "heavy": 3520,
      "Dash": 3521,
      "paid": 3522,
      "plans": 3523,
      "audi": 3524,
      "required": 3525,
      "univers": 3526,
      "development": 3527,
      "performance": 3528,
      "CHAPTER": 3529,
      "lest": 3530,
      "attach": 3531,
      "News": 3532,
      "completely": 3533,
      "suddenly": 3534,
      "TV": 3535,
      "die": 3536,
      "sit": 3537,
      "prim": 3538,
      "obli": 3539,
      "China": 3540,
      "forms": 3541,
      "paper": 3542,
      "66": 3543,
      "phe": 3544,
      "ern": 3545,
      "sky": 3546,
      "considered": 3547,
      "Fre": 3548,
      "eat": 3549,
      "caught": 3550,
      "ubb": 3551,
      "services": 3552,
      "increas": 3553,
      "answered": 3554,
      "wait": 3555,
      "entirely": 3556,
      "spring": 3557,
      "cult": 3558,
      "via": 3559,
      "whatever": 3560,
      "neg": 3561,
      "Russian": 3562,
      "cing": 3563,
      "atives": 3564,
      "uster": 3565,
      "istic": 3566,
      "students": 3567,
      "walked": 3568,
      "window": 3569,
      "message": 3570,
      "Rom": 3571,
      "iling": 3572,
      "agon": 3573,
      "note": 3574,
      "aught": 3575,
      "minute": 3576,
      "phys": 3577,
      "Robert": 3578,
      "According": 3579,
      "recogn": 3580,
      "needed": 3581,
      "broken": 3582,
      "Israel": 3583,
      "vast": 3584,
      "onest": 3585,
      "type": 3586,
      "throw": 3587,
      "solute": 3588,
      "sitting": 3589,
      "igr": 3590,
      "akers": 3591,
      "buy": 3592,
      "modern": 3593,
      "neighb": 3594,
      "strength": 3595,
      "Are": 3596,
      "forced": 3597,
      "shut": 3598,
      "pray": 3599,
      "Death": 3600,
      "bid": 3601,
      "fem": 3602,
      "remark": 3603,
      "chair": 3604,
      "amer": 3605,
      "iction": 3606,
      "changes": 3607,
      "App": 3608,
      "IT": 3609,
      "dut": 3610,
      "vey": 3611,
      "occur": 3612,
      "maintain": 3613,
      "require": 3614,
      "risk": 3615,
      "violence": 3616,
      "andon": 3617,
      "loved": 3618,
      "trade": 3619,
      "spot": 3620,
      "pping": 3621,
      "carried": 3622,
      "difference": 3623,
      "ville": 3624,
      "results": 3625,
      "77": 3626,
      "City": 3627,
      "Good": 3628,
      "Spe": 3629,
      "mix": 3630,
      "contain": 3631,
      "speaking": 3632,
      "Franc": 3633,
      "interesting": 3634,
      "Muslim": 3635,
      "opportunity": 3636,
      "advantage": 3637,
      "Sam": 3638,
      "ience": 3639,
      "enem": 3640,
      "rief": 3641,
      "aker": 3642,
      "bled": 3643,
      "possess": 3644,
      "honour": 3645,
      "Elliot": 3646,
      "Park": 3647,
      "rank": 3648,
      "tor": 3649,
      "stick": 3650,
      "irth": 3651,
      "knowledge": 3652,
      "supposed": 3653,
      "perfectly": 3654,
      "viron": 3655,
      ",)": 3656,
      "CE": 3657,
      "Cong": 3658,
      "hosp": 3659,
      "parts": 3660,
      "struck": 3661,
      "greater": 3662,
      "influence": 3663,
      "Earth": 3664,
      "OU": 3665,
      "lation": 3666,
      "eless": 3667,
      "0147": 3668,
      "wants": 3669,
      "happen": 3670,
      "fortun": 3671,
      "numbers": 3672,
      "involved": 3673,
      "wing": 3674,
      "asy": 3675,
      "owers": 3676,
      "James": 3677,
      "conce": 3678,
      "complain": 3679,
      "fric": 3680,
      "ester": 3681,
      "satisf": 3682,
      "Dashwood": 3683,
      "Afric": 3684,
      "Little": 3685,
      "tail": 3686,
      "neither": 3687,
      "Bro": 3688,
      "master": 3689,
      "na": 3690,
      "moving": 3691,
      "consequ": 3692,
      "shad": 3693,
      "encour": 3694,
      "silent": 3695,
      "candid": 3696,
      "amount": 3697,
      "Jap": 3698,
      "LE": 3699,
      "whis": 3700,
      "unk": 3701,
      "shar": 3702,
      "showed": 3703,
      "La": 3704,
      "ols": 3705,
      "justice": 3706,
      "avoid": 3707,
      "material": 3708,
      "rise": 3709,
      "army": 3710,
      "lean": 3711,
      "impossible": 3712,
      "lock": 3713,
      "financial": 3714,
      "occup": 3715,
      "street": 3716,
      "British": 3717,
      "Mart": 3718,
      "toward": 3719,
      "image": 3720,
      "rible": 3721,
      "See": 3722,
      "Francis": 3723,
      "Japan": 3724,
      "Luc": 3725,
      "eager": 3726,
      "hol": 3727,
      "site": 3728,
      "deed": 3729,
      "comment": 3730,
      "extra": 3731,
      "bling": 3732,
      "reports": 3733,
      "growth": 3734,
      "August": 3735,
      "Part": 3736,
      "cli": 3737,
      "card": 3738,
      "gin": 3739,
      "Friday": 3740,
      "instant": 3741,
      "increase": 3742,
      "shoot": 3743,
      "thousand": 3744,
      "OS": 3745,
      "spl": 3746,
      "oured": 3747,
      "stic": 3748,
      "arily": 3749,
      "propos": 3750,
      "teach": 3751,
      "potential": 3752,
      "BC": 3753,
      "Str": 3754,
      "fat": 3755,
      "fing": 3756,
      "gar": 3757,
      "vote": 3758,
      "haue": 3759,
      "Prof": 3760,
      "happiness": 3761,
      "drug": 3762,
      "equal": 3763,
      "43": 3764,
      "gree": 3765,
      "luck": 3766,
      "za": 3767,
      "inct": 3768,
      "arrest": 3769,
      "applic": 3770,
      "clean": 3771,
      "technology": 3772,
      "June": 3773,
      "Tues": 3774,
      "▄▄": 3775,
      "refer": 3776,
      "absolute": 3777,
      "term": 3778,
      "isters": 3779,
      "cool": 3780,
      "fax": 3781,
      "2017": 3782,
      "Prince": 3783,
      "silence": 3784,
      "Enter": 3785,
      "Over": 3786,
      "onto": 3787,
      "recomm": 3788,
      "article": 3789,
      "pleased": 3790,
      "yes": 3791,
      "iles": 3792,
      "affair": 3793,
      "spread": 3794,
      "couldn": 3795,
      "Like": 3796,
      "recently": 3797,
      "Republican": 3798,
      "Fairfax": 3799,
      "Tuesday": 3800,
      "rem": 3801,
      "sole": 3802,
      "ival": 3803,
      "orders": 3804,
      "events": 3805,
      "director": 3806,
      "increased": 3807,
      "scient": 3808,
      "41": 3809,
      "67": 3810,
      "died": 3811,
      "pal": 3812,
      "quality": 3813,
      "grad": 3814,
      "2011": 3815,
      "related": 3816,
      "Ah": 3817,
      "Ke": 3818,
      "base": 3819,
      "named": 3820,
      "rac": 3821,
      "ino": 3822,
      "online": 3823,
      "assu": 3824,
      "hael": 3825,
      "active": 3826,
      "aware": 3827,
      "ancing": 3828,
      "books": 3829,
      "Congress": 3830,
      "hen": 3831,
      "gry": 3832,
      "closed": 3833,
      "leader": 3834,
      "Donald": 3835,
      "==": 3836,
      "Sim": 3837,
      "mill": 3838,
      "suff": 3839,
      "deck": 3840,
      "compl": 3841,
      "earlier": 3842,
      "cru": 3843,
      "awa": 3844,
      "include": 3845,
      "multi": 3846,
      "Far": 3847,
      "tin": 3848,
      "beat": 3849,
      "lose": 3850,
      "mental": 3851,
      "consist": 3852,
      "latest": 3853,
      "nice": 3854,
      "paren": 3855,
      "lection": 3856,
      "weak": 3857,
      "Though": 3858,
      "promise": 3859,
      "Tor": 3860,
      "billion": 3861,
      "bird": 3862,
      "dol": 3863,
      "fold": 3864,
      "range": 3865,
      "review": 3866,
      "ett": 3867,
      "aps": 3868,
      "married": 3869,
      "evol": 3870,
      "response": 3871,
      "reached": 3872,
      "heaven": 3873,
      "improve": 3874,
      "plant": 3875,
      "wenty": 3876,
      "believed": 3877,
      "groups": 3878,
      "favor": 3879,
      "58": 3880,
      "Fin": 3881,
      "UK": 3882,
      "ease": 3883,
      "frequ": 3884,
      "mas": 3885,
      "itor": 3886,
      "leve": 3887,
      "emp": 3888,
      "feature": 3889,
      "miles": 3890,
      "extremely": 3891,
      "Dis": 3892,
      "Jen": 3893,
      "Satur": 3894,
      "indic": 3895,
      "guess": 3896,
      "tember": 3897,
      "destro": 3898,
      "Phil": 3899,
      "determined": 3900,
      "?”": 3901,
      "EC": 3902,
      "pun": 3903,
      "ware": 3904,
      "notice": 3905,
      "atest": 3906,
      "aked": 3907,
      "strugg": 3908,
      "laws": 3909,
      "receive": 3910,
      "investigation": 3911,
      "measure": 3912,
      "mountain": 3913,
      "Churchill": 3914,
      "fal": 3915,
      "native": 3916,
      "stuff": 3917,
      "erson": 3918,
      "odd": 3919,
      "iff": 3920,
      "burg": 3921,
      "struction": 3922,
      "42": 3923,
      "Med": 3924,
      "eper": 3925,
      "edge": 3926,
      "willing": 3927,
      "majority": 3928,
      "Oc": 3929,
      "Whe": 3930,
      "impress": 3931,
      "contribut": 3932,
      "ogle": 3933,
      "shape": 3934,
      "claims": 3935,
      "employ": 3936,
      "July": 3937,
      "lack": 3938,
      "nu": 3939,
      "voc": 3940,
      "edom": 3941,
      "Thurs": 3942,
      "aud": 3943,
      "izing": 3944,
      "included": 3945,
      "waiting": 3946,
      "patient": 3947,
      "economic": 3948,
      "credit": 3949,
      "ny": 3950,
      "Apr": 3951,
      "Get": 3952,
      "snow": 3953,
      "rose": 3954,
      "degree": 3955,
      "oppos": 3956,
      "cris": 3957,
      "Stubb": 3958,
      "choice": 3959,
      "powerful": 3960,
      "remains": 3961,
      "Google": 3962,
      "Monday": 3963,
      "federal": 3964,
      "mast": 3965,
      "eness": 3966,
      "whales": 3967,
      "walking": 3968,
      "Look": 3969,
      "couple": 3970,
      "ordinary": 3971,
      "labor": 3972,
      "Thursday": 3973,
      "59": 3974,
      "lord": 3975,
      "ming": 3976,
      "workers": 3977,
      "smile": 3978,
      "talked": 3979,
      "rising": 3980,
      "harpo": 3981,
      "problems": 3982,
      "Angel": 3983,
      "Charles": 3984,
      "language": 3985,
      "Great": 3986,
      "Such": 3987,
      "ae": 3988,
      "batter": 3989,
      "cise": 3990,
      "forget": 3991,
      "confl": 3992,
      "resist": 3993,
      "raised": 3994,
      "calling": 3995,
      "guard": 3996,
      "Parliament": 3997,
      "September": 3998,
      "Did": 3999,
      "persu": 4000,
      "equeg": 4001,
      "electric": 4002,
      "Queequeg": 4003,
      "bottom": 4004,
      "Michael": 4005,
      "Willi": 4006,
      "hang": 4007,
      "revol": 4008,
      "aters": 4009,
      "station": 4010,
      "orge": 4011,
      "leaving": 4012,
      "nest": 4013,
      "tran": 4014,
      "nobody": 4015,
      "price": 4016,
      "boys": 4017,
      "appearance": 4018,
      "customers": 4019,
      "anxiety": 4020,
      "Louisa": 4021,
      "published": 4022,
      "San": 4023,
      "cd": 4024,
      "ining": 4025,
      "associ": 4026,
      "proved": 4027,
      "offered": 4028,
      "calls": 4029,
      "Secret": 4030,
      "ED": 4031,
      "Hen": 4032,
      "birth": 4033,
      "gas": 4034,
      "mir": 4035,
      "thes": 4036,
      "environ": 4037,
      "total": 4038,
      "pock": 4039,
      "pra": 4040,
      "block": 4041,
      "rule": 4042,
      "Austria": 4043,
      "announced": 4044,
      "conscious": 4045,
      "?'": 4046,
      "Scar": 4047,
      "Tal": 4048,
      "dread": 4049,
      "hest": 4050,
      "spirits": 4051,
      "activity": 4052,
      "Mal": 4053,
      "Most": 4054,
      "ode": 4055,
      "yr": 4056,
      "acts": 4057,
      "officers": 4058,
      "hearing": 4059,
      "pleasant": 4060,
      "screen": 4061,
      "parents": 4062,
      "Mark": 4063,
      "hast": 4064,
      "hero": 4065,
      "progress": 4066,
      "Which": 4067,
      "airs": 4068,
      "morrow": 4069,
      "stopped": 4070,
      "victim": 4071,
      "89": 4072,
      "vs": 4073,
      "inqu": 4074,
      "rect": 4075,
      "iron": 4076,
      "shop": 4077,
      "apped": 4078,
      "source": 4079,
      "Department": 4080,
      "Bill": 4081,
      "Gener": 4082,
      "Since": 4083,
      "gives": 4084,
      "jump": 4085,
      "sets": 4086,
      "fru": 4087,
      "print": 4088,
      "affection": 4089,
      "club": 4090,
      "itely": 4091,
      "ension": 4092,
      "trees": 4093,
      "Ja": 4094,
      "Sch": 4095,
      "hi": 4096,
      "ounds": 4097,
      "positive": 4098,
      "seek": 4099,
      "finally": 4100,
      "Americans": 4101,
      "vertis": 4102,
      "administration": 4103,
      "Wed": 4104,
      "dare": 4105,
      "gather": 4106,
      "iest": 4107,
      "user": 4108,
      "saf": 4109,
      "fee": 4110,
      "afterwards": 4111,
      "sche": 4112,
      "origin": 4113,
      "sorry": 4114,
      "occasion": 4115,
      "Land": 4116,
      "ana": 4117,
      "restr": 4118,
      "cele": 4119,
      "save": 4120,
      "email": 4121,
      "estim": 4122,
      "bruary": 4123,
      "highly": 4124,
      "confidence": 4125,
      "rolled": 4126,
      "acquaint": 4127,
      "February": 4128,
      "Air": 4129,
      "East": 4130,
      "Mor": 4131,
      "apo": 4132,
      "cb": 4133,
      "fare": 4134,
      "vict": 4135,
      "secut": 4136,
      "emot": 4137,
      "qual": 4138,
      "tele": 4139,
      "heads": 4140,
      "putting": 4141,
      "Nove": 4142,
      "breath": 4143,
      "telling": 4144,
      "corpor": 4145,
      "calm": 4146,
      "January": 4147,
      "obliged": 4148,
      "Kore": 4149,
      "Ros": 4150,
      "fans": 4151,
      "rif": 4152,
      "psy": 4153,
      "passing": 4154,
      "greatest": 4155,
      "career": 4156,
      "produced": 4157,
      "refused": 4158,
      "tests": 4159,
      "economy": 4160,
      "critic": 4161,
      "Hal": 4162,
      "eth": 4163,
      "entered": 4164,
      "west": 4165,
      "proceed": 4166,
      "drop": 4167,
      "domin": 4168,
      "deliver": 4169,
      "Francisco": 4170,
      "celebr": 4171,
      "text": 4172,
      "taste": 4173,
      "forgot": 4174,
      "weight": 4175,
      "Thank": 4176,
      "places": 4177,
      "horse": 4178,
      "fixed": 4179,
      "November": 4180,
      "52": 4181,
      "78": 4182,
      "epis": 4183,
      "generally": 4184,
      "Because": 4185,
      "spokes": 4186,
      "ING": 4187,
      "currently": 4188,
      "described": 4189,
      "Lucy": 4190,
      "bask": 4191,
      "fancy": 4192,
      "ses": 4193,
      "dep": 4194,
      "mob": 4195,
      "gets": 4196,
      "2010": 4197,
      "judge": 4198,
      "Christian": 4199,
      "education": 4200,
      "Center": 4201,
      "Old": 4202,
      "honest": 4203,
      "rit": 4204,
      "uman": 4205,
      "stars": 4206,
      "iced": 4207,
      "church": 4208,
      "weather": 4209,
      "apt": 4210,
      "peror": 4211,
      "grat": 4212,
      "engine": 4213,
      "drive": 4214,
      "dinner": 4215,
      "features": 4216,
      "prepared": 4217,
      "Jennings": 4218,
      "Wednes": 4219,
      "Law": 4220,
      "Two": 4221,
      "ligence": 4222,
      "understanding": 4223,
      "European": 4224,
      "Saturday": 4225,
      "Play": 4226,
      "dire": 4227,
      "gay": 4228,
      "park": 4229,
      "inno": 4230,
      "movie": 4231,
      "Thou": 4232,
      "0150": 4233,
      "bury": 4234,
      "holding": 4235,
      "MP": 4236,
      "Went": 4237,
      "bod": 4238,
      "ju": 4239,
      "icious": 4240,
      "forces": 4241,
      "Joe": 4242,
      "rules": 4243,
      "Wednesday": 4244,
      "Hol": 4245,
      "ID": 4246,
      "Iran": 4247,
      "bon": 4248,
      "flight": 4249,
      "sac": 4250,
      "oul": 4251,
      "itiz": 4252,
      "accoun": 4253,
      "reser": 4254,
      "ems": 4255,
      "proud": 4256,
      "blow": 4257,
      "corner": 4258,
      "____": 4259,
      "agreed": 4260,
      "Som": 4261,
      "Tom": 4262,
      "bing": 4263,
      "narr": 4264,
      "demon": 4265,
      "abs": 4266,
      "mode": 4267,
      "spend": 4268,
      "effort": 4269,
      "network": 4270,
      "learned": 4271,
      "dream": 4272,
      "comfortable": 4273,
      "picture": 4274,
      "Ira": 4275,
      "harm": 4276,
      "tone": 4277,
      "utions": 4278,
      "apparent": 4279,
      "grew": 4280,
      "reasons": 4281,
      "purch": 4282,
      "watching": 4283,
      "science": 4284,
      "seat": 4285,
      "ado": 4286,
      "amaz": 4287,
      "istan": 4288,
      "ishing": 4289,
      "center": 4290,
      "poll": 4291,
      "priest": 4292,
      "mentioned": 4293,
      "acquaintance": 4294,
      "Many": 4295,
      "twenty": 4296,
      "ww": 4297,
      "wick": 4298,
      "cean": 4299,
      "crime": 4300,
      "disappoint": 4301,
      "marry": 4302,
      "Dece": 4303,
      "captain": 4304,
      "provided": 4305,
      "79": 4306,
      "Fore": 4307,
      "mach": 4308,
      "tic": 4309,
      "reven": 4310,
      "leaves": 4311,
      "excell": 4312,
      "compar": 4313,
      "letters": 4314,
      "addition": 4315,
      "goti": 4316,
      "opening": 4317,
      "title": 4318,
      "Canada": 4319,
      "April": 4320,
      "Iraq": 4321,
      "IL": 4322,
      "liter": 4323,
      "ties": 4324,
      "stone": 4325,
      "goal": 4326,
      "ause": 4327,
      "failed": 4328,
      "obvious": 4329,
      "passion": 4330,
      "joined": 4331,
      "Once": 4332,
      "usually": 4333,
      "thousands": 4334,
      "journal": 4335,
      "average": 4336,
      "Gl": 4337,
      "ky": 4338,
      "tle": 4339,
      "stage": 4340,
      "ctions": 4341,
      "proof": 4342,
      "ideas": 4343,
      "brand": 4344,
      "Britain": 4345,
      "welcome": 4346,
      "families": 4347,
      "69": 4348,
      "Right": 4349,
      "ahead": 4350,
      "dome": 4351,
      "iver": 4352,
      "tober": 4353,
      "aby": 4354,
      "negoti": 4355,
      "webs": 4356,
      "plat": 4357,
      "hole": 4358,
      "ampion": 4359,
      "appears": 4360,
      "pursu": 4361,
      "religious": 4362,
      "October": 4363,
      "Camp": 4364,
      "Net": 4365,
      "OT": 4366,
      "dim": 4367,
      "inch": 4368,
      "wouldn": 4369,
      "afford": 4370,
      "ishment": 4371,
      "scen": 4372,
      "region": 4373,
      "Emperor": 4374,
      "arrived": 4375,
      "December": 4376,
      "\".": 4377,
      "Cent": 4378,
      "aded": 4379,
      "oughby": 4380,
      "cook": 4381,
      "desire": 4382,
      "filled": 4383,
      "imagine": 4384,
      "Willoughby": 4385,
      "significant": 4386,
      "dollar": 4387,
      "51": 4388,
      "68": 4389,
      "Buster": 4390,
      "Photo": 4391,
      "atory": 4392,
      "beth": 4393,
      "opposition": 4394,
      "preh": 4395,
      "drawing": 4396,
      "surprise": 4397,
      "crowd": 4398,
      "Wentworth": 4399,
      "bol": 4400,
      "farm": 4401,
      "mate": 4402,
      "distr": 4403,
      "officer": 4404,
      "vari": 4405,
      "incident": 4406,
      "People": 4407,
      "500": 4408,
      "Rus": 4409,
      "eli": 4410,
      "broke": 4411,
      "ological": 4412,
      "severe": 4413,
      "Profess": 4414,
      "Sand": 4415,
      "kick": 4416,
      "rush": 4417,
      "icted": 4418,
      "azz": 4419,
      "distance": 4420,
      "burst": 4421,
      "production": 4422,
      "movement": 4423,
      "remained": 4424,
      "County": 4425,
      "global": 4426,
      "relationship": 4427,
      "Egy": 4428,
      "Love": 4429,
      "OL": 4430,
      "vain": 4431,
      "yell": 4432,
      "lip": 4433,
      "proposed": 4434,
      "worst": 4435,
      "uded": 4436,
      "pointed": 4437,
      "north": 4438,
      "detail": 4439,
      "duty": 4440,
      "esterday": 4441,
      "safety": 4442,
      "Hor": 4443,
      "Out": 4444,
      "ients": 4445,
      "nia": 4446,
      "sick": 4447,
      "armed": 4448,
      "ami": 4449,
      "youth": 4450,
      "habit": 4451,
      "plom": 4452,
      "ittee": 4453,
      "achie": 4454,
      "teen": 4455,
      "turns": 4456,
      "cheer": 4457,
      "introduced": 4458,
      "Egypt": 4459,
      "63": 4460,
      "htt": 4461,
      "rum": 4462,
      "vice": 4463,
      "perce": 4464,
      "grown": 4465,
      "everybody": 4466,
      "believ": 4467,
      "arrang": 4468,
      "Indian": 4469,
      "sexual": 4470,
      "slowly": 4471,
      "false": 4472,
      "://": 4473,
      "Cali": 4474,
      "kids": 4475,
      "nine": 4476,
      "tend": 4477,
      "xim": 4478,
      "eds": 4479,
      "perform": 4480,
      "Those": 4481,
      "Read": 4482,
      "skill": 4483,
      "BI": 4484,
      "cro": 4485,
      "mel": 4486,
      "income": 4487,
      "assa": 4488,
      "ida": 4489,
      "irt": 4490,
      "iring": 4491,
      "shr": 4492,
      "encies": 4493,
      "voy": 4494,
      "starting": 4495,
      "particip": 4496,
      "characters": 4497,
      "Tex": 4498,
      "hint": 4499,
      "laid": 4500,
      "pit": 4501,
      "pil": 4502,
      "pitch": 4503,
      "leans": 4504,
      "excl": 4505,
      "grave": 4506,
      "parties": 4507,
      "legis": 4508,
      "larger": 4509,
      "capital": 4510,
      "Islam": 4511,
      "systems": 4512,
      "Liber": 4513,
      "virt": 4514,
      "dangerous": 4515,
      "basket": 4516,
      "Er": 4517,
      "Eli": 4518,
      "Hart": 4519,
      "Under": 4520,
      "ec": 4521,
      "nom": 4522,
      "ule": 4523,
      "attr": 4524,
      "stret": 4525,
      "ari": 4526,
      "runs": 4527,
      "Califor": 4528,
      "Ce": 4529,
      "bra": 4530,
      "zen": 4531,
      "thick": 4532,
      "orm": 4533,
      "instance": 4534,
      "drawn": 4535,
      "schools": 4536,
      "despite": 4537,
      "individual": 4538,
      "PC": 4539,
      "bag": 4540,
      "loud": 4541,
      "oh": 4542,
      "waters": 4543,
      "unless": 4544,
      "model": 4545,
      "otherwise": 4546,
      "preci": 4547,
      "attend": 4548,
      "Council": 4549,
      "satisfied": 4550,
      "file": 4551,
      "fright": 4552,
      "icient": 4553,
      "ables": 4554,
      "ulty": 4555,
      "leton": 4556,
      "engaged": 4557,
      "spoken": 4558,
      "streets": 4559,
      "freedom": 4560,
      "India": 4561,
      "jobs": 4562,
      "explained": 4563,
      "separate": 4564,
      "crisis": 4565,
      "64": 4566,
      "Che": 4567,
      "Jose": 4568,
      "Night": 4569,
      "SA": 4570,
      "fan": 4571,
      "fash": 4572,
      "lic": 4573,
      "pair": 4574,
      "sched": 4575,
      "haven": 4576,
      "presence": 4577,
      "regul": 4578,
      "smart": 4579,
      "views": 4580,
      "complex": 4581,
      "Grec": 4582,
      "attacks": 4583,
      "Police": 4584,
      "ladies": 4585,
      "debate": 4586,
      "focus": 4587,
      "circumstances": 4588,
      "Ale": 4589,
      "Last": 4590,
      "bread": 4591,
      "daily": 4592,
      "kn": 4593,
      "ker": 4594,
      "inn": 4595,
      "acity": 4596,
      "forts": 4597,
      "carriage": 4598,
      "steps": 4599,
      "bd": 4600,
      "aries": 4601,
      "liance": 4602,
      "servative": 4603,
      "diplom": 4604,
      "helped": 4605,
      "defense": 4606,
      "Flor": 4607,
      "Image": 4608,
      "fighting": 4609,
      "floor": 4610,
      "practice": 4611,
      "Martin": 4612,
      "cf": 4613,
      "dict": 4614,
      "uous": 4615,
      "lease": 4616,
      "ads": 4617,
      "actor": 4618,
      "asking": 4619,
      "instit": 4620,
      "ification": 4621,
      "dropped": 4622,
      "accident": 4623,
      "settled": 4624,
      "Professor": 4625,
      "Du": 4626,
      "dy": 4627,
      "sides": 4628,
      "zed": 4629,
      "ilo": 4630,
      "rob": 4631,
      "ements": 4632,
      "grass": 4633,
      "thank": 4634,
      "surround": 4635,
      "listen": 4636,
      "politics": 4637,
      "property": 4638,
      "houses": 4639,
      "Secretary": 4640,
      "86": 4641,
      "bud": 4642,
      "cat": 4643,
      "fly": 4644,
      "gate": 4645,
      "gment": 4646,
      "gency": 4647,
      "ases": 4648,
      "heat": 4649,
      "ils": 4650,
      "acknow": 4651,
      "additional": 4652,
      "correct": 4653,
      "supported": 4654,
      "reflect": 4655,
      "faces": 4656,
      "Greg": 4657,
      "fro": 4658,
      "ero": 4659,
      "asp": 4660,
      "superi": 4661,
      "isted": 4662,
      "iously": 4663,
      "fortune": 4664,
      "trial": 4665,
      "anned": 4666,
      "concerned": 4667,
      "strike": 4668,
      "hopes": 4669,
      "stories": 4670,
      "copy": 4671,
      "computer": 4672,
      ".’": 4673,
      "RO": 4674,
      "citiz": 4675,
      "fif": 4676,
      "uals": 4677,
      "yesterday": 4678,
      "consum": 4679,
      "blind": 4680,
      "spending": 4681,
      "obtain": 4682,
      "understood": 4683,
      "George": 4684,
      "curious": 4685,
      "establish": 4686,
      "alleged": 4687,
      "secure": 4688,
      "California": 4689,
      "ai": 4690,
      "hate": 4691,
      "kne": 4692,
      "thin": 4693,
      "enge": 4694,
      "although": 4695,
      "advis": 4696,
      "hath": 4697,
      "concept": 4698,
      "international": 4699,
      "ashed": 4700,
      "useful": 4701,
      "install": 4702,
      "solid": 4703,
      "matters": 4704,
      "scarce": 4705,
      "vertisement": 4706,
      "Mad": 4707,
      "ST": 4708,
      "orters": 4709,
      "asc": 4710,
      "areas": 4711,
      "shout": 4712,
      "noon": 4713,
      "setting": 4714,
      "tenance": 4715,
      "2009": 4716,
      "teams": 4717,
      "costs": 4718,
      "Starbuck": 4719,
      "merely": 4720,
      "AD": 4721,
      "Put": 4722,
      "Wind": 4723,
      "bf": 4724,
      "bass": 4725,
      "batt": 4726,
      "lets": 4727,
      "sake": 4728,
      "bless": 4729,
      "medical": 4730,
      "guy": 4731,
      "promised": 4732,
      "possibly": 4733,
      "igrants": 4734,
      "fashion": 4735,
      "85": 4736,
      "Bur": 4737,
      "Both": 4738,
      "Sal": 4739,
      "fier": 4740,
      "lap": 4741,
      "shore": 4742,
      "ighest": 4743,
      "ivity": 4744,
      "brid": 4745,
      "attor": 4746,
      "plays": 4747,
      "famous": 4748,
      "fool": 4749,
      "succeed": 4750,
      "effects": 4751,
      "damage": 4752,
      "Have": 4753,
      "Rob": 4754,
      "Val": 4755,
      "god": 4756,
      "uge": 4757,
      "winter": 4758,
      "delay": 4759,
      "weet": 4760,
      "acting": 4761,
      "cancer": 4762,
      "cient": 4763,
      "fault": 4764,
      "writer": 4765,
      "responsible": 4766,
      "limited": 4767,
      "drew": 4768,
      "Jaune": 4769,
      "Del": 4770,
      "Ry": 4771,
      "bomb": 4772,
      "c0": 4773,
      "sought": 4774,
      "tour": 4775,
      "icles": 4776,
      "liked": 4777,
      "democr": 4778,
      "neck": 4779,
      "comments": 4780,
      "plate": 4781,
      "oppon": 4782,
      "bold": 4783,
      "raise": 4784,
      "Adam": 4785,
      "shock": 4786,
      "witness": 4787,
      "cells": 4788,
      "criminal": 4789,
      "Italian": 4790,
      "Ano": 4791,
      "Sou": 4792,
      "aa": 4793,
      "b9": 4794,
      "rat": 4795,
      "thro": 4796,
      "liar": 4797,
      "owned": 4798,
      "compared": 4799,
      "minister": 4800,
      "finished": 4801,
      "interested": 4802,
      "driving": 4803,
      "stream": 4804,
      "histor": 4805,
      "authority": 4806,
      "female": 4807,
      "sharp": 4808,
      "conflict": 4809,
      "Russell": 4810,
      "Cha": 4811,
      "Fo": 4812,
      "Fur": 4813,
      "Had": 4814,
      "hence": 4815,
      "oring": 4816,
      "acle": 4817,
      "veh": 4818,
      "mighty": 4819,
      "Paris": 4820,
      "Perhaps": 4821,
      "rapid": 4822,
      "73": 4823,
      "Met": 4824,
      "d9": 4825,
      "rare": 4826,
      "wound": 4827,
      "”.": 4828,
      "ultim": 4829,
      "pool": 4830,
      "firmed": 4831,
      "standard": 4832,
      "subst": 4833,
      "Constitution": 4834,
      "osity": 4835,
      "produce": 4836,
      "caused": 4837,
      "respond": 4838,
      "truly": 4839,
      "surprised": 4840,
      "observed": 4841,
      "Rand": 4842,
      "Rich": 4843,
      "mut": 4844,
      "uri": 4845,
      "althy": 4846,
      "Thus": 4847,
      "phy": 4848,
      "reality": 4849,
      "holds": 4850,
      "posted": 4851,
      "suggested": 4852,
      "affected": 4853,
      "71": 4854,
      "Pat": 4855,
      "Sub": 4856,
      "fond": 4857,
      "thur": 4858,
      "infer": 4859,
      "angry": 4860,
      "ander": 4861,
      "omen": 4862,
      "amid": 4863,
      "feed": 4864,
      "inte": 4865,
      "knowing": 4866,
      "details": 4867,
      "advice": 4868,
      "metal": 4869,
      "hurt": 4870,
      "satisfact": 4871,
      "trouble": 4872,
      "weapons": 4873,
      "General": 4874,
      "53": 4875,
      "IP": 4876,
      "UN": 4877,
      "names": 4878,
      "pa": 4879,
      "era": 4880,
      "aine": 4881,
      "surv": 4882,
      "surface": 4883,
      "farther": 4884,
      "Arthur": 4885,
      "biggest": 4886,
      "Orleans": 4887,
      "Democratic": 4888,
      "challeng": 4889,
      "culture": 4890,
      "sufficient": 4891,
      "Gi": 4892,
      "mn": 4893,
      "irty": 4894,
      "Int": 4895,
      "memory": 4896,
      "politic": 4897,
      "shadow": 4898,
      "absolutely": 4899,
      "superior": 4900,
      "Time": 4901,
      "brief": 4902,
      "ga": 4903,
      "pin": 4904,
      "aside": 4905,
      "terrible": 4906,
      "prospect": 4907,
      "prote": 4908,
      "earch": 4909,
      "prefer": 4910,
      "guys": 4911,
      "solution": 4912,
      "astern": 4913,
      "bringing": 4914,
      "stitute": 4915,
      "admir": 4916,
      "previously": 4917,
      "domestic": 4918,
      "62": 4919,
      "Bet": 4920,
      "Down": 4921,
      "Tre": 4922,
      "kno": 4923,
      "rout": 4924,
      "uzz": 4925,
      "ato": 4926,
      "conven": 4927,
      "shown": 4928,
      "grace": 4929,
      "umb": 4930,
      "scale": 4931,
      "happens": 4932,
      "choose": 4933,
      "largest": 4934,
      "Syria": 4935,
      "double": 4936,
      "impact": 4937,
      "benefit": 4938,
      "Hillary": 4939,
      "Another": 4940,
      "IC": 4941,
      "Tod": 4942,
      "ux": 4943,
      "inced": 4944,
      "agno": 4945,
      "moon": 4946,
      "ources": 4947,
      "eman": 4948,
      "aston": 4949,
      "actual": 4950,
      "0146": 4951,
      "berg": 4952,
      "serve": 4953,
      "portion": 4954,
      "Any": 4955,
      "cript": 4956,
      "fields": 4957,
      "intelligence": 4958,
      "Australia": 4959,
      "independent": 4960,
      "psych": 4961,
      "Texas": 4962,
      "Cecil": 4963,
      "IM": 4964,
      "Other": 4965,
      "Sw": 4966,
      "highest": 4967,
      "uries": 4968,
      "river": 4969,
      "wear": 4970,
      "discovered": 4971,
      "Chin": 4972,
      "century": 4973,
      "friendly": 4974,
      "finding": 4975,
      "Only": 4976,
      "skin": 4977,
      "includes": 4978,
      "twice": 4979,
      "girls": 4980,
      "successful": 4981,
      "analy": 4982,
      "hospital": 4983,
      "During": 4984,
      "Times": 4985,
      "c8": 4986,
      "hid": 4987,
      "uf": 4988,
      "ona": 4989,
      "itable": 4990,
      "height": 4991,
      "commer": 4992,
      "aper": 4993,
      "colour": 4994,
      "student": 4995,
      "clearly": 4996,
      "designed": 4997,
      "hoped": 4998,
      "traditional": 4999,
      "stock": 5000,
      "excellent": 5001,
      "54": 5002,
      "72": 5003,
      "Again": 5004,
      "Bear": 5005,
      "Follow": 5006,
      "Gold": 5007,
      "Hell": 5008,
      "Wal": 5009,
      "c9": 5010,
      "hall": 5011,
      "ipe": 5012,
      "san": 5013,
      "mod": 5014,
      "prepar": 5015,
      "pressure": 5016,
      "igned": 5017,
      "Archer": 5018,
      "detect": 5019,
      "treatment": 5020,
      "resolution": 5021,
      "square": 5022,
      "Jackson": 5023,
      "direction": 5024,
      "integr": 5025,
      "eld": 5026,
      "rates": 5027,
      "reli": 5028,
      "store": 5029,
      "entially": 5030,
      "libr": 5031,
      "plane": 5032,
      "trick": 5033,
      "stern": 5034,
      "concern": 5035,
      "Queen": 5036,
      "device": 5037,
      "fruit": 5038,
      "df": 5039,
      "sof": 5040,
      "orter": 5041,
      "accur": 5042,
      "ains": 5043,
      "ulous": 5044,
      "umn": 5045,
      "guine": 5046,
      "ysis": 5047,
      "Before": 5048,
      "fallen": 5049,
      "unique": 5050,
      "trem": 5051,
      "Christmas": 5052,
      "Gree": 5053,
      "Nature": 5054,
      "patch": 5055,
      "tight": 5056,
      "asing": 5057,
      "ented": 5058,
      "asted": 5059,
      "astic": 5060,
      "thrown": 5061,
      "maybe": 5062,
      "anche": 5063,
      "valu": 5064,
      "condition": 5065,
      "developed": 5066,
      "declared": 5067,
      "basic": 5068,
      "motion": 5069,
      "multiple": 5070,
      "Joseph": 5071,
      "Bay": 5072,
      "Was": 5073,
      "plent": 5074,
      "shew": 5075,
      "soldiers": 5076,
      "revealed": 5077,
      "Cecilia": 5078,
      "Chinese": 5079,
      "AF": 5080,
      "assure": 5081,
      "seas": 5082,
      "chant": 5083,
      "upd": 5084,
      "flag": 5085,
      "Nothing": 5086,
      "prior": 5087,
      "azy": 5088,
      "continues": 5089,
      "govern": 5090,
      "numer": 5091,
      "eventually": 5092,
      "beauty": 5093,
      "critical": 5094,
      "Jewish": 5095,
      "neighbour": 5096,
      "website": 5097,
      "CD": 5098,
      "NB": 5099,
      "Walter": 5100,
      "cous": 5101,
      "iar": 5102,
      "south": 5103,
      "removed": 5104,
      "confirmed": 5105,
      "intended": 5106,
      "boats": 5107,
      "Instead": 5108,
      "central": 5109,
      "adding": 5110,
      "clock": 5111,
      "passage": 5112,
      "equally": 5113,
      "allows": 5114,
      "swift": 5115,
      "concerns": 5116,
      "mistake": 5117,
      "senior": 5118,
      "Democrats": 5119,
      "agreeable": 5120,
      "document": 5121,
      "Never": 5122,
      "OF": 5123,
      "Pequ": 5124,
      "dance": 5125,
      "tears": 5126,
      "uce": 5127,
      "ume": 5128,
      "select": 5129,
      "opposed": 5130,
      "grant": 5131,
      "fles": 5132,
      "2008": 5133,
      "ordered": 5134,
      "operation": 5135,
      "launch": 5136,
      "voters": 5137,
      "opposite": 5138,
      "Pequod": 5139,
      "gri": 5140,
      "nut": 5141,
      "vacc": 5142,
      "arian": 5143,
      "itter": 5144,
      "aces": 5145,
      "myster": 5146,
      "efforts": 5147,
      "defend": 5148,
      "eneath": 5149,
      "sounds": 5150,
      "Musgro": 5151,
      "pieces": 5152,
      "options": 5153,
      "Pied": 5154,
      "sch": 5155,
      "isions": 5156,
      "aspect": 5157,
      "exclaimed": 5158,
      "tray": 5159,
      "sigh": 5160,
      "desc": 5161,
      "Brandon": 5162,
      "engagement": 5163,
      "relative": 5164,
      "Emp": 5165,
      "cape": 5166,
      "confess": 5167,
      "programs": 5168,
      "AND": 5169,
      "songs": 5170,
      "connected": 5171,
      "recommend": 5172,
      "IR": 5173,
      "Ty": 5174,
      "lyn": 5175,
      "noise": 5176,
      "Thy": 5177,
      "coat": 5178,
      "prem": 5179,
      "stands": 5180,
      "Although": 5181,
      "journey": 5182,
      "behavior": 5183,
      "Midd": 5184,
      "enemy": 5185,
      "Big": 5186,
      "LA": 5187,
      "bum": 5188,
      "tall": 5189,
      "reck": 5190,
      "imple": 5191,
      "amber": 5192,
      "haw": 5193,
      "frame": 5194,
      "sav": 5195,
      "derick": 5196,
      "throughout": 5197,
      "arks": 5198,
      "belief": 5199,
      "blog": 5200,
      "allowing": 5201,
      "easier": 5202,
      "balance": 5203,
      "script": 5204,
      "William": 5205,
      "pocket": 5206,
      "Florida": 5207,
      "Bra": 5208,
      "PN": 5209,
      "cott": 5210,
      "flying": 5211,
      "lor": 5212,
      "rant": 5213,
      "taught": 5214,
      "vac": 5215,
      "yard": 5216,
      "error": 5217,
      "remind": 5218,
      "ata": 5219,
      "ora": 5220,
      "umph": 5221,
      "mostly": 5222,
      "older": 5223,
      "generation": 5224,
      "empty": 5225,
      "changing": 5226,
      "treated": 5227,
      "authorities": 5228,
      "Africa": 5229,
      "shooting": 5230,
      "praise": 5231,
      "episode": 5232,
      "Back": 5233,
      "pull": 5234,
      "ching": 5235,
      "conference": 5236,
      "preser": 5237,
      "contact": 5238,
      "thinks": 5239,
      "Associ": 5240,
      "lights": 5241,
      "charges": 5242,
      "Leon": 5243,
      "keeping": 5244,
      "refuge": 5245,
      "creature": 5246,
      "Internet": 5247,
      "electricity": 5248,
      "Bates": 5249,
      "Den": 5250,
      "Pre": 5251,
      "Vir": 5252,
      "cities": 5253,
      "tack": 5254,
      "ache": 5255,
      "consul": 5256,
      "mechan": 5257,
      "ardon": 5258,
      "observ": 5259,
      "lawy": 5260,
      "culiar": 5261,
      "population": 5262,
      "Maybe": 5263,
      "collection": 5264,
      "village": 5265,
      "Bush": 5266,
      "Direct": 5267,
      "rated": 5268,
      "sin": 5269,
      "wer": 5270,
      "devil": 5271,
      "peculiar": 5272,
      "Indeed": 5273,
      "brow": 5274,
      "ports": 5275,
      "vention": 5276,
      "creating": 5277,
      "rolling": 5278,
      "employe": 5279,
      "agreement": 5280,
      "Office": 5281,
      "physical": 5282,
      "millions": 5283,
      "\",": 5284,
      "ocean": 5285,
      "sion": 5286,
      "sword": 5287,
      "uk": 5288,
      "yards": 5289,
      "threw": 5290,
      "alive": 5291,
      "ador": 5292,
      "acious": 5293,
      "nose": 5294,
      "branch": 5295,
      "centre": 5296,
      "fled": 5297,
      "arming": 5298,
      "drag": 5299,
      "visible": 5300,
      "sons": 5301,
      "conditions": 5302,
      "distress": 5303,
      "laughing": 5304,
      "voted": 5305,
      "animals": 5306,
      "Berlin": 5307,
      "victory": 5308,
      "74": 5309,
      "fant": 5310,
      "figh": 5311,
      "pure": 5312,
      "chap": 5313,
      "exer": 5314,
      "exceed": 5315,
      "orses": 5316,
      "charged": 5317,
      "distribut": 5318,
      "pressed": 5319,
      "bench": 5320,
      "Frederick": 5321,
      "levels": 5322,
      "nuclear": 5323,
      "Au": 5324,
      "Cam": 5325,
      "Press": 5326,
      "hack": 5327,
      "pale": 5328,
      "powers": 5329,
      "tong": 5330,
      "stairs": 5331,
      "arts": 5332,
      "oked": 5333,
      "climate": 5334,
      "crack": 5335,
      "tells": 5336,
      "solar": 5337,
      "college": 5338,
      "battery": 5339,
      "Hartfield": 5340,
      "Piedro": 5341,
      "61": 5342,
      "Det": 5343,
      "Lab": 5344,
      "Long": 5345,
      "Wall": 5346,
      "fi": 5347,
      "mat": 5348,
      "unknown": 5349,
      "emen": 5350,
      "clim": 5351,
      "seeking": 5352,
      "presented": 5353,
      "violent": 5354,
      "gentlemen": 5355,
      "option": 5356,
      "09": 5357,
      "Ver": 5358,
      "bare": 5359,
      "gall": 5360,
      "ufact": 5361,
      "ston": 5362,
      "agency": 5363,
      "owners": 5364,
      "coin": 5365,
      "partners": 5366,
      "capable": 5367,
      "advance": 5368,
      "signed": 5369,
      "transfer": 5370,
      "Western": 5371,
      "considering": 5372,
      "entertain": 5373,
      "Scott": 5374,
      "constant": 5375,
      "pulled": 5376,
      "whisper": 5377,
      "Party": 5378,
      "scheme": 5379,
      "DE": 5380,
      "Def": 5381,
      "Mur": 5382,
      "Very": 5383,
      "bac": 5384,
      "sisters": 5385,
      "worthy": 5386,
      "handsome": 5387,
      "capacity": 5388,
      "apping": 5389,
      "reasonable": 5390,
      "Grand": 5391,
      "species": 5392,
      "expressed": 5393,
      "consequence": 5394,
      "Korea": 5395,
      "Cath": 5396,
      "Game": 5397,
      "PM": 5398,
      "beneath": 5399,
      "pto": 5400,
      "ram": 5401,
      "task": 5402,
      "tender": 5403,
      "ensure": 5404,
      "beau": 5405,
      "noted": 5406,
      "outs": 5407,
      "perman": 5408,
      "pride": 5409,
      "aks": 5410,
      "iew": 5411,
      "rence": 5412,
      "guest": 5413,
      "happening": 5414,
      "clothes": 5415,
      "operations": 5416,
      "travel": 5417,
      "demonstr": 5418,
      "84": 5419,
      "Bel": 5420,
      "Light": 5421,
      "Life": 5422,
      "Ram": 5423,
      "Rose": 5424,
      "Wil": 5425,
      "ni": 5426,
      "tou": 5427,
      "wid": 5428,
      "ensu": 5429,
      "unit": 5430,
      "wealth": 5431,
      "formation": 5432,
      "Trans": 5433,
      "friendship": 5434,
      "breaking": 5435,
      "aze": 5436,
      "advoc": 5437,
      "darkness": 5438,
      "expression": 5439,
      "researchers": 5440,
      "Republicans": 5441,
      "Empire": 5442,
      "Each": 5443,
      "Jud": 5444,
      "Lat": 5445,
      "Pac": 5446,
      "bby": 5447,
      "hes": 5448,
      "mic": 5449,
      "ifying": 5450,
      "somehow": 5451,
      "overall": 5452,
      "newsp": 5453,
      "Chief": 5454,
      "evin": 5455,
      "signs": 5456,
      "interests": 5457,
      "Advertisement": 5458,
      "falling": 5459,
      "immediate": 5460,
      "----------------": 5461,
      "department": 5462,
      "Palest": 5463,
      "cabin": 5464,
      "candidate": 5465,
      "Alex": 5466,
      "(@": 5467,
      "Mag": 5468,
      "dd": 5469,
      "dry": 5470,
      "infl": 5471,
      "insul": 5472,
      "returning": 5473,
      "isation": 5474,
      "icate": 5475,
      "manners": 5476,
      "decades": 5477,
      "Leg": 5478,
      "Rock": 5479,
      "missed": 5480,
      "sibility": 5481,
      "hurry": 5482,
      "Scot": 5483,
      "International": 5484,
      "Senate": 5485,
      "discussion": 5486,
      "platform": 5487,
      "yellow": 5488,
      "camer": 5489,
      "becoming": 5490,
      "owed": 5491,
      "whal": 5492,
      "iments": 5493,
      "prices": 5494,
      "partner": 5495,
      "aircraft": 5496,
      "drum": 5497,
      "syn": 5498,
      "joint": 5499,
      "diagno": 5500,
      "driven": 5501,
      "presidential": 5502,
      "challenge": 5503,
      "slightly": 5504,
      "implement": 5505,
      "BO": 5506,
      "Cal": 5507,
      "Fox": 5508,
      "PA": 5509,
      "Pet": 5510,
      "Rad": 5511,
      "Squ": 5512,
      "b0": 5513,
      "mail": 5514,
      "rage": 5515,
      "sco": 5516,
      "waves": 5517,
      "yield": 5518,
      "escape": 5519,
      "union": 5520,
      "explan": 5521,
      "earnest": 5522,
      "coal": 5523,
      "served": 5524,
      "surance": 5525,
      "legs": 5526,
      "promot": 5527,
      "provides": 5528,
      "investment": 5529,
      "silver": 5530,
      "breakfast": 5531,
      "animal": 5532,
      "convinced": 5533,
      "arrested": 5534,
      "affairs": 5535,
      "ET": 5536,
      "Ir": 5537,
      "Men": 5538,
      "bought": 5539,
      "dish": 5540,
      "oo": 5541,
      "hell": 5542,
      "shame": 5543,
      "apart": 5544,
      "fest": 5545,
      "spite": 5546,
      "effic": 5547,
      "tware": 5548,
      "Mean": 5549,
      "settle": 5550,
      "troops": 5551,
      "Super": 5552,
      "struggle": 5553,
      "scarcely": 5554,
      "attorney": 5555,
      "Dear": 5556,
      "Dick": 5557,
      "IV": 5558,
      "OK": 5559,
      "PS": 5560,
      "School": 5561,
      "Tar": 5562,
      "sey": 5563,
      "shire": 5564,
      "prosecut": 5565,
      "Thom": 5566,
      "Through": 5567,
      "somewhat": 5568,
      "paying": 5569,
      "watched": 5570,
      "contract": 5571,
      "objects": 5572,
      "expand": 5573,
      "suffering": 5574,
      "executive": 5575,
      "vocal": 5576,
      "assault": 5577,
      "Bull": 5578,
      "aur": 5579,
      "horses": 5580,
      "lee": 5581,
      "entr": 5582,
      "ults": 5583,
      "management": 5584,
      "manufact": 5585,
      "doors": 5586,
      "indif": 5587,
      "intent": 5588,
      "strict": 5589,
      "Chris": 5590,
      "typ": 5591,
      "circle": 5592,
      "difficulty": 5593,
      "strategy": 5594,
      "audience": 5595,
      "proposal": 5596,
      "mobile": 5597,
      "300": 5598,
      "Pan": 5599,
      "hide": 5600,
      "ius": 5601,
      "rot": 5602,
      "ende": 5603,
      "stro": 5604,
      "assum": 5605,
      "oms": 5606,
      "ays": 5607,
      "lips": 5608,
      "trail": 5609,
      "anybody": 5610,
      "brown": 5611,
      "listening": 5612,
      "missing": 5613,
      "satisfaction": 5614,
      "Virgin": 5615,
      "lished": 5616,
      "patter": 5617,
      "pled": 5618,
      "coast": 5619,
      "countenance": 5620,
      "regret": 5621,
      "grey": 5622,
      "appropri": 5623,
      "limit": 5624,
      "seriously": 5625,
      "analysis": 5626,
      "behaviour": 5627,
      "familiar": 5628,
      "documents": 5629,
      "plenty": 5630,
      "barr": 5631,
      "gers": 5632,
      "nod": 5633,
      "champion": 5634,
      "constitution": 5635,
      "extr": 5636,
      "precise": 5637,
      "color": 5638,
      "distant": 5639,
      "triumph": 5640,
      "moments": 5641,
      "records": 5642,
      "combat": 5643,
      "collected": 5644,
      "definitely": 5645,
      "possibility": 5646,
      "dollars": 5647,
      "Eliza": 5648,
      "Ryan": 5649,
      "83": 5650,
      "87": 5651,
      "EL": 5652,
      "Fort": 5653,
      "OD": 5654,
      "Ron": 5655,
      "Tri": 5656,
      "eleg": 5657,
      "fol": 5658,
      "pity": 5659,
      "becomes": 5660,
      "accompl": 5661,
      "imper": 5662,
      "utch": 5663,
      "ateg": 5664,
      "Atl": 5665,
      "organiz": 5666,
      "weapon": 5667,
      "Middleton": 5668,
      "Ferr": 5669,
      "Rev": 5670,
      "Sto": 5671,
      "Take": 5672,
      "][": 5673,
      "wine": 5674,
      "inated": 5675,
      "reject": 5676,
      "altogether": 5677,
      "iters": 5678,
      "sect": 5679,
      "agger": 5680,
      "abilities": 5681,
      "usive": 5682,
      "poet": 5683,
      "ourselves": 5684,
      "offensive": 5685,
      "ignor": 5686,
      "creation": 5687,
      "compass": 5688,
      "Reg": 5689,
      "2007": 5690,
      "issued": 5691,
      "testing": 5692,
      "About": 5693,
      "flowers": 5694,
      "massive": 5695,
      "benefits": 5696,
      "Today": 5697,
      "Peter": 5698,
      "WH": 5699,
      "cc": 5700,
      "erry": 5701,
      "cha": 5702,
      "alls": 5703,
      "embr": 5704,
      "prime": 5705,
      "string": 5706,
      "compon": 5707,
      "ission": 5708,
      "Truman": 5709,
      "importance": 5710,
      "considerable": 5711,
      "besides": 5712,
      "established": 5713,
      "environment": 5714,
      "forgotten": 5715,
      "commercial": 5716,
      "anchester": 5717,
      "Cast": 5718,
      "Kel": 5719,
      "Mil": 5720,
      "Mod": 5721,
      "Manchester": 5722,
      "Wa": 5723,
      "lan": 5724,
      "male": 5725,
      "nav": 5726,
      "stable": 5727,
      "aced": 5728,
      "acher": 5729,
      "arest": 5730,
      "Health": 5731,
      "preced": 5732,
      "valid": 5733,
      "values": 5734,
      "covering": 5735,
      "tempor": 5736,
      "translation": 5737,
      "football": 5738,
      "argument": 5739,
      "finger": 5740,
      "2f": 5741,
      "IA": 5742,
      "Tay": 5743,
      "east": 5744,
      "lum": 5745,
      "assem": 5746,
      "fraud": 5747,
      "wearing": 5748,
      "crash": 5749,
      "forest": 5750,
      "Bron": 5751,
      "founded": 5752,
      "relations": 5753,
      "advent": 5754,
      "immigrants": 5755,
      "basis": 5756,
      "figures": 5757,
      "anxious": 5758,
      "pushed": 5759,
      "Research": 5760,
      "application": 5761,
      "CN": 5762,
      "Found": 5763,
      "Hy": 5764,
      "Napo": 5765,
      "e9": 5766,
      "kin": 5767,
      "map": 5768,
      "makers": 5769,
      "rend": 5770,
      "ota": 5771,
      "roid": 5772,
      "resources": 5773,
      "plus": 5774,
      "sphere": 5775,
      "whenever": 5776,
      "ava": 5777,
      "ips": 5778,
      "maid": 5779,
      "begun": 5780,
      "supply": 5781,
      "breast": 5782,
      "calcul": 5783,
      "incredi": 5784,
      "learning": 5785,
      "Grey": 5786,
      "Boy": 5787,
      "storm": 5788,
      "Justice": 5789,
      "carrying": 5790,
      "Farmer": 5791,
      "FR": 5792,
      "Fisher": 5793,
      "Please": 5794,
      "Sur": 5795,
      "Sperm": 5796,
      "a9": 5797,
      "d0": 5798,
      "ride": 5799,
      "rang": 5800,
      "uer": 5801,
      "ube": 5802,
      "stir": 5803,
      "inging": 5804,
      "debt": 5805,
      "consu": 5806,
      "meat": 5807,
      "button": 5808,
      "igration": 5809,
      "offering": 5810,
      "instantly": 5811,
      "stein": 5812,
      "wonderful": 5813,
      "experienced": 5814,
      "contrast": 5815,
      "techni": 5816,
      "laughed": 5817,
      "connection": 5818,
      "hundreds": 5819,
      "status": 5820,
      "Roman": 5821,
      "scientific": 5822,
      "Wheel": 5823,
      "Palestin": 5824,
      "Di": 5825,
      "Fire": 5826,
      "Free": 5827,
      "Hard": 5828,
      "fuel": 5829,
      "theless": 5830,
      "renew": 5831,
      "tool": 5832,
      "ico": 5833,
      "agues": 5834,
      "olic": 5835,
      "thanks": 5836,
      "internet": 5837,
      "smell": 5838,
      "ception": 5839,
      "normal": 5840,
      "distinct": 5841,
      "annual": 5842,
      "files": 5843,
      "planet": 5844,
      "policies": 5845,
      "mistress": 5846,
      "suffered": 5847,
      "suspic": 5848,
      "GOP": 5849,
      "individuals": 5850,
      "Apple": 5851,
      "fortunately": 5852,
      "evolution": 5853,
      "estimated": 5854,
      "apparently": 5855,
      "http": 5856,
      "acknowled": 5857,
      "1f": 5858,
      "Bu": 5859,
      "Hall": 5860,
      "Ill": 5861,
      "b8": 5862,
      "hib": 5863,
      "jaw": 5864,
      "mates": 5865,
      "leon": 5866,
      "web": 5867,
      "yours": 5868,
      "disput": 5869,
      "minor": 5870,
      "Social": 5871,
      "singer": 5872,
      "Sea": 5873,
      "burn": 5874,
      "carefully": 5875,
      "studies": 5876,
      "accepted": 5877,
      "Macb": 5878,
      "sources": 5879,
      "curiosity": 5880,
      "4f": 5881,
      "Cho": 5882,
      "NC": 5883,
      "Port": 5884,
      "Son": 5885,
      "Would": 5886,
      "km": 5887,
      "wake": 5888,
      "enforce": 5889,
      "amb": 5890,
      "ghan": 5891,
      "cel": 5892,
      "notes": 5893,
      "ares": 5894,
      "display": 5895,
      "flat": 5896,
      "supporters": 5897,
      "tempt": 5898,
      "stronger": 5899,
      "announce": 5900,
      "occurred": 5901,
      "believes": 5902,
      "Duke": 5903,
      "Tim": 5904,
      "iel": 5905,
      "manager": 5906,
      "shel": 5907,
      "eping": 5908,
      "udes": 5909,
      "background": 5910,
      "voices": 5911,
      "moral": 5912,
      "patients": 5913,
      "admitted": 5914,
      "attempted": 5915,
      "inquir": 5916,
      "Napoleon": 5917,
      "Cru": 5918,
      "Pak": 5919,
      "SP": 5920,
      "bone": 5921,
      "ka": 5922,
      "pite": 5923,
      "tis": 5924,
      "ilst": 5925,
      "illegal": 5926,
      "compreh": 5927,
      "istics": 5928,
      "auto": 5929,
      "cles": 5930,
      "Still": 5931,
      "singing": 5932,
      "denied": 5933,
      "rooms": 5934,
      "fourth": 5935,
      "faced": 5936,
      "employed": 5937,
      "injured": 5938,
      "favourite": 5939,
      "travell": 5940,
      "reduce": 5941,
      "primary": 5942,
      "victims": 5943,
      "accounts": 5944,
      "software": 5945,
      ":--": 5946,
      "MO": 5947,
      "pig": 5948,
      "pause": 5949,
      "tum": 5950,
      "vation": 5951,
      "invent": 5952,
      "itors": 5953,
      "icy": 5954,
      "seed": 5955,
      "ample": 5956,
      "dece": 5957,
      "istry": 5958,
      "minim": 5959,
      "handed": 5960,
      "decide": 5961,
      "smaller": 5962,
      "confident": 5963,
      "woods": 5964,
      "naturally": 5965,
      "borne": 5966,
      "Crown": 5967,
      "homes": 5968,
      "Mike": 5969,
      "possession": 5970,
      "harpoone": 5971,
      "spokesman": 5972,
      "cheerful": 5973,
      "politicians": 5974,
      "numerous": 5975,
      "Jones": 5976,
      "Rab": 5977,
      "lat": 5978,
      "torn": 5979,
      "toler": 5980,
      "amond": 5981,
      "deplo": 5982,
      "defic": 5983,
      "hasn": 5984,
      "presents": 5985,
      "philo": 5986,
      "internal": 5987,
      "cars": 5988,
      "vessel": 5989,
      "committed": 5990,
      "Also": 5991,
      "shook": 5992,
      "Flam": 5993,
      "gained": 5994,
      "motor": 5995,
      "citizens": 5996,
      "philoso": 5997,
      "+:": 5998,
      "::": 5999,
      "Asi": 6000,
      "Blo": 6001,
      "Uk": 6002,
      "ko": 6003,
      "nie": 6004,
      "tired": 6005,
      "vant": 6006,
      "instru": 6007,
      "sust": 6008,
      "ateful": 6009,
      "somewhere": 6010,
      "assert": 6011,
      "Stud": 6012,
      "desired": 6013,
      "draft": 6014,
      "advanced": 6015,
      "prompt": 6016,
      "Spir": 6017,
      "Space": 6018,
      "companion": 6019,
      "revolution": 6020,
      "scenes": 6021,
      "Bath": 6022,
      "CO": 6023,
      "Federal": 6024,
      "Lake": 6025,
      "bat": 6026,
      "c5": 6027,
      "dyn": 6028,
      "ito": 6029,
      "kins": 6030,
      "mes": 6031,
      "waste": 6032,
      "section": 6033,
      "adem": 6034,
      "ainted": 6035,
      "fears": 6036,
      "doctor": 6037,
      "noble": 6038,
      "brings": 6039,
      "Stand": 6040,
      "attered": 6041,
      "feels": 6042,
      "prize": 6043,
      "kindness": 6044,
      "refuse": 6045,
      "winning": 6046,
      "projects": 6047,
      "religion": 6048,
      "leadership": 6049,
      "Henry": 6050,
      "originally": 6051,
      "guinea": 6052,
      "Musgrove": 6053,
      "Taylor": 6054,
      "!”": 6055,
      "EU": 6056,
      "Jem": 6057,
      "Mill": 6058,
      "nur": 6059,
      "sending": 6060,
      "vul": 6061,
      "unning": 6062,
      "riv": 6063,
      "illness": 6064,
      "loyal": 6065,
      "quis": 6066,
      "performed": 6067,
      "glory": 6068,
      "showing": 6069,
      "servants": 6070,
      "younger": 6071,
      "planning": 6072,
      "companions": 6073,
      "mistaken": 6074,
      "opinions": 6075,
      "rupted": 6076,
      "magn": 6077,
      "Toronto": 6078,
      "bodies": 6079,
      "Elizabeth": 6080,
      "Ferrars": 6081,
      "Flambeau": 6082,
      "Kevin": 6083,
      "Mer": 6084,
      "Power": 6085,
      "YOU": 6086,
      "dust": 6087,
      "kid": 6088,
      "tough": 6089,
      "ano": 6090,
      "adjust": 6091,
      "iders": 6092,
      "lix": 6093,
      "etc": 6094,
      "ural": 6095,
      "losing": 6096,
      "ulated": 6097,
      "selfe": 6098,
      "affic": 6099,
      "positions": 6100,
      "finish": 6101,
      "smiling": 6102,
      "courage": 6103,
      "shared": 6104,
      "cutting": 6105,
      "Syrian": 6106,
      "bigger": 6107,
      "furn": 6108,
      "Carol": 6109,
      "regarding": 6110,
      "excited": 6111,
      "jection": 6112,
      "attached": 6113,
      "Sanders": 6114,
      "Richard": 6115,
      "**": 6116,
      "05": 6117,
      "Dun": 6118,
      "Sat": 6119,
      "cow": 6120,
      "een": 6121,
      "epe": 6122,
      "nam": 6123,
      "nations": 6124,
      "pic": 6125,
      "”,": 6126,
      "ancient": 6127,
      "remove": 6128,
      "league": 6129,
      "ading": 6130,
      "rial": 6131,
      "disease": 6132,
      "Step": 6133,
      "throne": 6134,
      "Price": 6135,
      "Arab": 6136,
      "anny": 6137,
      "steady": 6138,
      "Comp": 6139,
      "measures": 6140,
      "existing": 6141,
      "neighbor": 6142,
      "fortunate": 6143,
      "bted": 6144,
      "baby": 6145,
      "c7": 6146,
      "db": 6147,
      "sales": 6148,
      "sperm": 6149,
      "orious": 6150,
      "tools": 6151,
      "album": 6152,
      "healthy": 6153,
      "icide": 6154,
      "whaling": 6155,
      "likes": 6156,
      "aggress": 6157,
      "resent": 6158,
      "ountain": 6159,
      "council": 6160,
      "2018": 6161,
      "Art": 6162,
      "busy": 6163,
      "element": 6164,
      "privacy": 6165,
      "divine": 6166,
      "strateg": 6167,
      "attachment": 6168,
      "extraordinary": 6169,
      "amazing": 6170,
      "Islamic": 6171,
      "Gregory": 6172,
      "()": 6173,
      "2a": 6174,
      "3e": 6175,
      "=>": 6176,
      "DB": 6177,
      "FA": 6178,
      "Mat": 6179,
      "PR": 6180,
      "fisher": 6181,
      "hither": 6182,
      "sink": 6183,
      "tact": 6184,
      "tally": 6185,
      "tick": 6186,
      "thread": 6187,
      "ini": 6188,
      "orial": 6189,
      "alliance": 6190,
      "construction": 6191,
      "planned": 6192,
      "click": 6193,
      "blank": 6194,
      "teeth": 6195,
      "clever": 6196,
      "begins": 6197,
      "Security": 6198,
      "leads": 6199,
      "Shall": 6200,
      "thorough": 6201,
      "injury": 6202,
      "devices": 6203,
      "competition": 6204,
      "Highbury": 6205,
      "favorite": 6206,
      "legislation": 6207,
      "Pacific": 6208,
      "Pakistan": 6209,
      "Dre": 6210,
      "GB": 6211,
      "Sol": 6212,
      "TP": 6213,
      "Till": 6214,
      "ta": 6215,
      "insp": 6216,
      "resh": 6217,
      "atically": 6218,
      "stated": 6219,
      "ara": 6220,
      "idel": 6221,
      "worry": 6222,
      "shell": 6223,
      "prud": 6224,
      "anywhere": 6225,
      "offers": 6226,
      "iana": 6227,
      "desper": 6228,
      "brothers": 6229,
      "marked": 6230,
      "distur": 6231,
      "2004": 6232,
      "summon": 6233,
      "sentence": 6234,
      "remaining": 6235,
      "variety": 6236,
      "organization": 6237,
      "graphy": 6238,
      "resolved": 6239,
      "golden": 6240,
      "Israeli": 6241,
      "smoke": 6242,
      "products": 6243,
      "initial": 6244,
      "enemies": 6245,
      "Campbell": 6246,
      "protection": 6247,
      "3f": 6248,
      "Ban": 6249,
      "Cy": 6250,
      "Dist": 6251,
      "Eve": 6252,
      "Ha": 6253,
      "Ken": 6254,
      "Lu": 6255,
      "bones": 6256,
      "dwell": 6257,
      "pir": 6258,
      "pounds": 6259,
      "wis": 6260,
      "orous": 6261,
      "ingu": 6262,
      "beast": 6263,
      "adop": 6264,
      "aue": 6265,
      "survey": 6266,
      "Second": 6267,
      "campus": 6268,
      "balls": 6269,
      "enny": 6270,
      "solemn": 6271,
      "Ukrain": 6272,
      "Isa": 6273,
      "Mex": 6274,
      "Sl": 6275,
      "Sil": 6276,
      "TO": 6277,
      "dying": 6278,
      "iation": 6279,
      "jail": 6280,
      "sis": 6281,
      "tied": 6282,
      "sees": 6283,
      "rog": 6284,
      "wash": 6285,
      "unched": 6286,
      "sharing": 6287,
      "excess": 6288,
      "crown": 6289,
      "Chic": 6290,
      "counsel": 6291,
      "handle": 6292,
      "curren": 6293,
      "legit": 6294,
      "warned": 6295,
      "Union": 6296,
      "Island": 6297,
      "transl": 6298,
      "requires": 6299,
      "informed": 6300,
      "castle": 6301,
      "properly": 6302,
      "sorrow": 6303,
      "moderate": 6304,
      "pictures": 6305,
      "increasing": 6306,
      "negative": 6307,
      "mixed": 6308,
      "81": 6309,
      "95": 6310,
      "Hur": 6311,
      "Lin": 6312,
      "Nant": 6313,
      "border": 6314,
      "tort": 6315,
      "wil": 6316,
      "reward": 6317,
      "atmo": 6318,
      "arant": 6319,
      "noticed": 6320,
      "prop": 6321,
      "somebody": 6322,
      "Institute": 6323,
      "rail": 6324,
      "commission": 6325,
      "2006": 6326,
      "lists": 6327,
      "claiming": 6328,
      "largely": 6329,
      "Afghan": 6330,
      "elements": 6331,
      "acquainted": 6332,
      "flood": 6333,
      "picked": 6334,
      "experiment": 6335,
      "communication": 6336,
      "circumstance": 6337,
      "library": 6338,
      "explanation": 6339,
      "Chicago": 6340,
      "Ay": 6341,
      "Duch": 6342,
      "Ly": 6343,
      "Pass": 6344,
      "cure": 6345,
      "gal": 6346,
      "ki": 6347,
      "oke": 6348,
      "sand": 6349,
      "ongest": 6350,
      "rev": 6351,
      "reference": 6352,
      "island": 6353,
      "behold": 6354,
      "acing": 6355,
      "ulate": 6356,
      "owner": 6357,
      "spin": 6358,
      "tea": 6359,
      "angers": 6360,
      "writes": 6361,
      "visited": 6362,
      "bitter": 6363,
      "seconds": 6364,
      "fairly": 6365,
      "wishes": 6366,
      "residents": 6367,
      "judgment": 6368,
      "Among": 6369,
      "purchase": 6370,
      "voyage": 6371,
      "06": 6372,
      "400": 6373,
      "Cur": 6374,
      "SH": 6375,
      "Upon": 6376,
      "dart": 6377,
      "fired": 6378,
      "latter": 6379,
      "mild": 6380,
      "zone": 6381,
      "stones": 6382,
      "itz": 6383,
      "aret": 6384,
      "shif": 6385,
      "upid": 6386,
      "Three": 6387,
      "Its": 6388,
      "score": 6389,
      "phones": 6390,
      "appeal": 6391,
      "facts": 6392,
      "arrival": 6393,
      "creatures": 6394,
      "Book": 6395,
      "1990": 6396,
      "deeply": 6397,
      "session": 6398,
      "tradition": 6399,
      "failure": 6400,
      "delighted": 6401,
      "drinking": 6402,
      "university": 6403,
      "drugs": 6404,
      "Talbot": 6405,
      "employees": 6406,
      "6f": 6407,
      "Bob": 6408,
      "pill": 6409,
      "sites": 6410,
      "va": 6411,
      "encounter": 6412,
      "uncle": 6413,
      "cture": 6414,
      "fron": 6415,
      "butter": 6416,
      "feared": 6417,
      "perpet": 6418,
      "igno": 6419,
      "types": 6420,
      "2005": 6421,
      "receiving": 6422,
      "effective": 6423,
      "thusi": 6424,
      "liberal": 6425,
      "Jews": 6426,
      "principles": 6427,
      "machine": 6428,
      "achieve": 6429,
      "Nantuck": 6430,
      "Ap": 6431,
      "Full": 6432,
      "Kur": 6433,
      "Lev": 6434,
      "Mel": 6435,
      "Sing": 6436,
      "Water": 6437,
      "bott": 6438,
      "hung": 6439,
      "jack": 6440,
      "lion": 6441,
      "tun": 6442,
      "theory": 6443,
      "enthusi": 6444,
      "beard": 6445,
      "ilty": 6446,
      "veter": 6447,
      "saving": 6448,
      "plants": 6449,
      "traffic": 6450,
      "oblig": 6451,
      "tural": 6452,
      "enses": 6453,
      "headed": 6454,
      "decisions": 6455,
      "applied": 6456,
      "twel": 6457,
      "expensive": 6458,
      "Phone": 6459,
      "professional": 6460,
      "crimin": 6461,
      "employment": 6462,
      "budget": 6463,
      "fierce": 6464,
      "Greek": 6465,
      "Ba": 6466,
      "Bank": 6467,
      "Gar": 6468,
      "Ire": 6469,
      "WR": 6470,
      "dancing": 6471,
      "iny": 6472,
      "inson": 6473,
      "resem": 6474,
      "stress": 6475,
      "itated": 6476,
      "lia": 6477,
      "heres": 6478,
      "pron": 6479,
      "prejud": 6480,
      "identity": 6481,
      "Ass": 6482,
      "lectin": 6483,
      "closer": 6484,
      "subscri": 6485,
      "Johnson": 6486,
      "determine": 6487,
      "banks": 6488,
      "Despite": 6489,
      "4e": 6490,
      "Burs": 6491,
      "Four": 6492,
      "Test": 6493,
      "eating": 6494,
      "lou": 6495,
      "pm": 6496,
      "ena": 6497,
      "alt": 6498,
      "aria": 6499,
      "leap": 6500,
      "impatient": 6501,
      "agencies": 6502,
      "loose": 6503,
      "0003": 6504,
      "ource": 6505,
      "upper": 6506,
      "doct": 6507,
      "nois": 6508,
      "cking": 6509,
      "intim": 6510,
      "blame": 6511,
      "berries": 6512,
      "lessly": 6513,
      "ensions": 6514,
      "guarant": 6515,
      "gling": 6516,
      "cuts": 6517,
      "Commission": 6518,
      "milk": 6519,
      "approved": 6520,
      "strongly": 6521,
      "accused": 6522,
      "thodox": 6523,
      "Micro": 6524,
      "photos": 6525,
      "location": 6526,
      "quietly": 6527,
      "concluded": 6528,
      "Japanese": 6529,
      "tongue": 6530,
      "07": 6531,
      "2e": 6532,
      "Bow": 6533,
      "Jim": 6534,
      "NA": 6535,
      "Sid": 6536,
      "TA": 6537,
      "categ": 6538,
      "fet": 6539,
      "jest": 6540,
      "py": 6541,
      "pardon": 6542,
      "rom": 6543,
      "vy": 6544,
      "zy": 6545,
      "infin": 6546,
      "alle": 6547,
      "oted": 6548,
      "images": 6549,
      "roof": 6550,
      "moves": 6551,
      "odes": 6552,
      "goals": 6553,
      "intention": 6554,
      "march": 6555,
      "Web": 6556,
      "maxim": 6557,
      "guilty": 6558,
      "commit": 6559,
      "2003": 6560,
      "ixon": 6561,
      "wheel": 6562,
      "profit": 6563,
      "consideration": 6564,
      "Blue": 6565,
      "messages": 6566,
      "smooth": 6567,
      "Team": 6568,
      "Italy": 6569,
      "frequently": 6570,
      "bridge": 6571,
      "Meanwhile": 6572,
      "Could": 6573,
      "Sum": 6574,
      "Sign": 6575,
      "ml": 6576,
      "pent": 6577,
      "wand": 6578,
      "xic": 6579,
      "reaction": 6580,
      "enorm": 6581,
      "toss": 6582,
      "liest": 6583,
      "abuse": 6584,
      "shots": 6585,
      "rape": 6586,
      "shoulder": 6587,
      "guide": 6588,
      "wanting": 6589,
      "enger": 6590,
      "providing": 6591,
      "Ministry": 6592,
      "sensible": 6593,
      "votes": 6594,
      "regarded": 6595,
      "birds": 6596,
      "destroy": 6597,
      "schedul": 6598,
      "enforcement": 6599,
      "Ireland": 6600,
      "Band": 6601,
      "Best": 6602,
      "FBI": 6603,
      "Jer": 6604,
      "SE": 6605,
      "Watch": 6606,
      "aus": 6607,
      "cere": 6608,
      "core": 6609,
      "lit": 6610,
      "hem": 6611,
      "unable": 6612,
      "olf": 6613,
      "truck": 6614,
      "artist": 6615,
      "posing": 6616,
      "attended": 6617,
      "Prime": 6618,
      "decade": 6619,
      "restaur": 6620,
      "servant": 6621,
      "aza": 6622,
      "persons": 6623,
      "sooner": 6624,
      "talks": 6625,
      "nearer": 6626,
      "directed": 6627,
      "responsibility": 6628,
      "Add": 6629,
      "amongst": 6630,
      "killing": 6631,
      "datab": 6632,
      "uniform": 6633,
      "patience": 6634,
      "Board": 6635,
      "Perry": 6636,
      "involve": 6637,
      "occupied": 6638,
      "www": 6639,
      "Leonora": 6640,
      "permanent": 6641,
      "appropriate": 6642,
      "1e": 6643,
      "2000": 6644,
      "Bible": 6645,
      "FC": 6646,
      "Los": 6647,
      "None": 6648,
      "a5": 6649,
      "dign": 6650,
      "inent": 6651,
      "stupid": 6652,
      "offee": 6653,
      "escap": 6654,
      "irk": 6655,
      "agent": 6656,
      "locked": 6657,
      "managed": 6658,
      "update": 6659,
      "worn": 6660,
      "backs": 6661,
      "chest": 6662,
      "Arch": 6663,
      "giant": 6664,
      "retired": 6665,
      "reply": 6666,
      "responded": 6667,
      "THAT": 6668,
      "privile": 6669,
      "onym": 6670,
      "storage": 6671,
      "excuse": 6672,
      "lifted": 6673,
      "impression": 6674,
      "absence": 6675,
      "comparison": 6676,
      "hidden": 6677,
      "Latin": 6678,
      "Virginia": 6679,
      ",’": 6680,
      "Aye": 6681,
      "Bes": 6682,
      "Dou": 6683,
      "FL": 6684,
      "PD": 6685,
      "VER": 6686,
      "bbles": 6687,
      "cave": 6688,
      "——": 6689,
      "infr": 6690,
      "owne": 6691,
      "chain": 6692,
      "keeper": 6693,
      "essential": 6694,
      "veness": 6695,
      "pressing": 6696,
      "attribut": 6697,
      "backed": 6698,
      "evident": 6699,
      "eff": 6700,
      "smiled": 6701,
      "distingu": 6702,
      "milit": 6703,
      "queer": 6704,
      "alternative": 6705,
      "existence": 6706,
      "sports": 6707,
      "Breakers": 6708,
      "hills": 6709,
      "increasingly": 6710,
      "assured": 6711,
      "tiny": 6712,
      "flesh": 6713,
      "Catholic": 6714,
      "Case": 6715,
      "d8": 6716,
      "gan": 6717,
      "slo": 6718,
      "ti": 6719,
      "erable": 6720,
      "resu": 6721,
      "alous": 6722,
      "esy": 6723,
      "abandon": 6724,
      "conservative": 6725,
      "lobby": 6726,
      "soil": 6727,
      "estate": 6728,
      "Anderson": 6729,
      "poses": 6730,
      "mony": 6731,
      "Child": 6732,
      "puts": 6733,
      "Images": 6734,
      "declined": 6735,
      "Poor": 6736,
      "radio": 6737,
      "clouds": 6738,
      "principle": 6739,
      "methods": 6740,
      "Romney": 6741,
      "lucky": 6742,
      "obtained": 6743,
      "opponents": 6744,
      "weren": 6745,
      "Bart": 6746,
      "Div": 6747,
      "Gen": 6748,
      "HT": 6749,
      "Jour": 6750,
      "Mont": 6751,
      "NO": 6752,
      "Sel": 6753,
      "Vict": 6754,
      "Women": 6755,
      "rous": 6756,
      "thunder": 6757,
      "instruct": 6758,
      "rever": 6759,
      "sters": 6760,
      "advert": 6761,
      "owing": 6762,
      "whilst": 6763,
      "chose": 6764,
      "concent": 6765,
      "complic": 6766,
      "cruel": 6767,
      "angel": 6768,
      "scape": 6769,
      "flash": 6770,
      "Pray": 6771,
      "percentage": 6772,
      "Span": 6773,
      "launched": 6774,
      "trait": 6775,
      "Service": 6776,
      "difficulties": 6777,
      "intellect": 6778,
      "Committee": 6779,
      "initi": 6780,
      "African": 6781,
      "Brook": 6782,
      "gradu": 6783,
      "Windows": 6784,
      "valuable": 6785,
      "twelve": 6786,
      "7e": 6787,
      "Daily": 6788,
      "Sar": 6789,
      "Ye": 6790,
      "aire": 6791,
      "pher": 6792,
      "stuck": 6793,
      "saved": 6794,
      "manage": 6795,
      "stranger": 6796,
      "attent": 6797,
      "afternoon": 6798,
      "monitor": 6799,
      "download": 6800,
      "collabor": 6801,
      "consent": 6802,
      "surely": 6803,
      "glance": 6804,
      "weekend": 6805,
      "careful": 6806,
      "gery": 6807,
      "Colle": 6808,
      "seasons": 6809,
      "immort": 6810,
      "Angular": 6811,
      "colleagues": 6812,
      "injuries": 6813,
      "pushing": 6814,
      "sympath": 6815,
      "deserve": 6816,
      "jumped": 6817,
      "cousin": 6818,
      "BM": 6819,
      "DO": 6820,
      "Hay": 6821,
      "IG": 6822,
      "Matt": 6823,
      "Ot": 6824,
      "SC": 6825,
      "mand": 6826,
      "sper": 6827,
      "sale": 6828,
      "til": 6829,
      "oma": 6830,
      "amps": 6831,
      "comed": 6832,
      "indu": 6833,
      "boss": 6834,
      "prev": 6835,
      "ensity": 6836,
      "committee": 6837,
      "corrupt": 6838,
      "coverage": 6839,
      "returns": 6840,
      "Does": 6841,
      "supper": 6842,
      "cycle": 6843,
      "activities": 6844,
      "divided": 6845,
      "Barbar": 6846,
      "invited": 6847,
      "liberty": 6848,
      "professor": 6849,
      "flew": 6850,
      "Australian": 6851,
      "destroyed": 6852,
      "negotiations": 6853,
      "governments": 6854,
      "cottage": 6855,
      "pronoun": 6856,
      "End": 6857,
      "Friend": 6858,
      "SEC": 6859,
      "Ze": 6860,
      "bent": 6861,
      "dial": 6862,
      "iju": 6863,
      "puzz": 6864,
      "ws": 6865,
      "wings": 6866,
      "alarm": 6867,
      "uters": 6868,
      "roots": 6869,
      "rific": 6870,
      "confirm": 6871,
      "elled": 6872,
      "crazy": 6873,
      "desir": 6874,
      "asks": 6875,
      "dram": 6876,
      "chosen": 6877,
      "perspect": 6878,
      "statements": 6879,
      "markets": 6880,
      "ushed": 6881,
      "minds": 6882,
      "completed": 6883,
      "winds": 6884,
      "Flask": 6885,
      "subjects": 6886,
      "argued": 6887,
      "Whether": 6888,
      "hanging": 6889,
      "ultimately": 6890,
      "newspaper": 6891,
      "Thomas": 6892,
      "):": 6893,
      "Bell": 6894,
      "BFR": 6895,
      "CB": 6896,
      "Ray": 6897,
      "Sci": 6898,
      "aunt": 6899,
      "b6": 6900,
      "coffee": 6901,
      "fed": 6902,
      "ipp": 6903,
      "pace": 6904,
      "rational": 6905,
      "tu": 6906,
      "vig": 6907,
      "inher": 6908,
      "icing": 6909,
      "exchange": 6910,
      "indign": 6911,
      "raising": 6912,
      "context": 6913,
      "award": 6914,
      "polls": 6915,
      "interrupted": 6916,
      "ashamed": 6917,
      "extent": 6918,
      "trip": 6919,
      "Allen": 6920,
      "Admir": 6921,
      "cription": 6922,
      "universe": 6923,
      "humans": 6924,
      "remembered": 6925,
      "III": 6926,
      "Upper": 6927,
      "emergency": 6928,
      "universal": 6929,
      "gratitude": 6930,
      "disappointed": 6931,
      "Scotland": 6932,
      "Barbara": 6933,
      "CA": 6934,
      "Dam": 6935,
      "Hu": 6936,
      "Hel": 6937,
      "Haw": 6938,
      "Java": 6939,
      "Mother": 6940,
      "Ret": 6941,
      "Youn": 6942,
      "cards": 6943,
      "gap": 6944,
      "iot": 6945,
      "mile": 6946,
      "nag": 6947,
      "phas": 6948,
      "oup": 6949,
      "stag": 6950,
      "totally": 6951,
      "isol": 6952,
      "aly": 6953,
      "deliber": 6954,
      "illing": 6955,
      "construct": 6956,
      "sover": 6957,
      "pover": 6958,
      "iger": 6959,
      "grateful": 6960,
      "autom": 6961,
      "cling": 6962,
      "discover": 6963,
      "awn": 6964,
      "surve": 6965,
      "marks": 6966,
      "lots": 6967,
      "driver": 6968,
      "operating": 6969,
      "horiz": 6970,
      "sugar": 6971,
      "Hamlet": 6972,
      "beside": 6973,
      "walls": 6974,
      "mortal": 6975,
      "materials": 6976,
      "▄▄▄": 6977,
      "associated": 6978,
      "consciousness": 6979,
      "perceived": 6980,
      "frightened": 6981,
      "knife": 6982,
      "admiration": 6983,
      "Cruz": 6984,
      "Bus": 6985,
      "Wr": 6986,
      "Wik": 6987,
      "ht": 6988,
      "iPhone": 6989,
      "oy": 6990,
      "pages": 6991,
      "rub": 6992,
      "tweet": 6993,
      "vn": 6994,
      "anarch": 6995,
      "reign": 6996,
      "reform": 6997,
      "shit": 6998,
      "shift": 6999,
      "exposed": 7000,
      "grab": 7001,
      "earn": 7002,
      "cler": 7003,
      "ferent": 7004,
      "everywhere": 7005,
      "regime": 7006,
      "pointing": 7007,
      "personally": 7008,
      "helping": 7009,
      "index": 7010,
      "Clay": 7011,
      "windows": 7012,
      "trend": 7013,
      "attempts": 7014,
      "combined": 7015,
      "funding": 7016,
      "appointed": 7017,
      "Supreme": 7018,
      "assistance": 7019,
      "reduced": 7020,
      "Central": 7021,
      "stretch": 7022,
      "institutions": 7023,
      "entrance": 7024,
      ");": 7025,
      "08": 7026,
      "98": 7027,
      "Bud": 7028,
      "Fi": 7029,
      "Pom": 7030,
      "Sure": 7031,
      "Town": 7032,
      "a8": 7033,
      "bc": 7034,
      "mi": 7035,
      "ray": 7036,
      "thirty": 7037,
      "reput": 7038,
      "leep": 7039,
      "entering": 7040,
      "improved": 7041,
      "rope": 7042,
      "riot": 7043,
      "illust": 7044,
      "aining": 7045,
      "usted": 7046,
      "quit": 7047,
      "quant": 7048,
      "earned": 7049,
      "crimes": 7050,
      "angle": 7051,
      "subs": 7052,
      "engage": 7053,
      "Class": 7054,
      "League": 7055,
      "System": 7056,
      "hearts": 7057,
      "waited": 7058,
      "businesses": 7059,
      "sung": 7060,
      "declare": 7061,
      "striking": 7062,
      "hurried": 7063,
      "eternal": 7064,
      "defined": 7065,
      "profession": 7066,
      "Muslims": 7067,
      "scientists": 7068,
      "etta": 7069,
      "innocent": 7070,
      "wicked": 7071,
      "Chap": 7072,
      "Association": 7073,
      "adopted": 7074,
      "enormous": 7075,
      "\"'": 7076,
      "Gra": 7077,
      "Jord": 7078,
      "Ko": 7079,
      "Powers": 7080,
      "UC": 7081,
      "bour": 7082,
      "eu": 7083,
      "fate": 7084,
      "kiss": 7085,
      "maker": 7086,
      "rab": 7087,
      "ske": 7088,
      "render": 7089,
      "items": 7090,
      "betray": 7091,
      "ada": 7092,
      "notion": 7093,
      "lod": 7094,
      "ques": 7095,
      "shoulders": 7096,
      "ogue": 7097,
      "Dec": 7098,
      "listened": 7099,
      "switch": 7100,
      "alongside": 7101,
      "midst": 7102,
      "staying": 7103,
      "bella": 7104,
      "relationships": 7105,
      "hunter": 7106,
      "located": 7107,
      "channel": 7108,
      "fingers": 7109,
      "applications": 7110,
      "persuaded": 7111,
      "Lawrence": 7112,
      "Egyptian": 7113,
      "Josephine": 7114,
      "NBA": 7115,
      "fighters": 7116,
      "camera": 7117,
      "CNN": 7118,
      "Besides": 7119,
      "College": 7120,
      "ijuana": 7121,
      "Fam": 7122,
      "ME": 7123,
      "Sher": 7124,
      "bows": 7125,
      "cash": 7126,
      "d7": 7127,
      "dc": 7128,
      "eign": 7129,
      "faster": 7130,
      "gender": 7131,
      "plum": 7132,
      "exter": 7133,
      "embarr": 7134,
      "readers": 7135,
      "mont": 7136,
      "standards": 7137,
      "aimo": 7138,
      "Orthodox": 7139,
      "communities": 7140,
      "closely": 7141,
      "genet": 7142,
      "demands": 7143,
      "heavily": 7144,
      "guns": 7145,
      "Georg": 7146,
      "observe": 7147,
      "graphic": 7148,
      "independence": 7149,
      "CEO": 7150,
      "consistent": 7151,
      "dreadful": 7152,
      "succeeded": 7153,
      "endeav": 7154,
      "atmosphere": 7155,
      "Admiral": 7156,
      "embarrass": 7157,
      "($": 7158,
      "?)": 7159,
      "Bal": 7160,
      "Make": 7161,
      "TE": 7162,
      "bri": 7163,
      "bore": 7164,
      "fought": 7165,
      "mour": 7166,
      "wig": 7167,
      "zing": 7168,
      "thine": 7169,
      "inary": 7170,
      "secre": 7171,
      "united": 7172,
      "deem": 7173,
      "apps": 7174,
      "propri": 7175,
      "istered": 7176,
      "grav": 7177,
      "inev": 7178,
      "spark": 7179,
      "woe": 7180,
      "monster": 7181,
      "azine": 7182,
      "pression": 7183,
      "Ohio": 7184,
      "facing": 7185,
      "taxes": 7186,
      "papers": 7187,
      "ruled": 7188,
      "Franklin": 7189,
      "banner": 7190,
      "expert": 7191,
      "anticip": 7192,
      "candidates": 7193,
      "eagerly": 7194,
      "split": 7195,
      "emotion": 7196,
      "television": 7197,
      "vehicle": 7198,
      "consult": 7199,
      "ptoms": 7200,
      "touched": 7201,
      "Journal": 7202,
      "Bad": 7203,
      "MS": 7204,
      "UR": 7205,
      "Vis": 7206,
      "b5": 7207,
      "fuck": 7208,
      "von": 7209,
      "wret": 7210,
      "recollect": 7211,
      "outer": 7212,
      "illy": 7213,
      "chim": 7214,
      "frust": 7215,
      "geant": 7216,
      "Think": 7217,
      "grim": 7218,
      "auth": 7219,
      "ureau": 7220,
      "disc": 7221,
      "smal": 7222,
      "Army": 7223,
      "filed": 7224,
      "grounds": 7225,
      "shortly": 7226,
      "contrad": 7227,
      "dreams": 7228,
      "ronic": 7229,
      "sleeping": 7230,
      "constantly": 7231,
      "Middle": 7232,
      "resistance": 7233,
      "________": 7234,
      "Jordan": 7235,
      "Bul": 7236,
      "Hun": 7237,
      "Ms": 7238,
      "Note": 7239,
      "Pad": 7240,
      "Rel": 7241,
      "Vol": 7242,
      "f9": 7243,
      "iOS": 7244,
      "pse": 7245,
      "vital": 7246,
      "enburg": 7247,
      "arg": 7248,
      "beach": 7249,
      "acles": 7250,
      "chances": 7251,
      "deput": 7252,
      "abled": 7253,
      "usal": 7254,
      "comr": 7255,
      "commod": 7256,
      "shine": 7257,
      "therap": 7258,
      "poly": 7259,
      "apers": 7260,
      "dozen": 7261,
      "worship": 7262,
      "grade": 7263,
      "Story": 7264,
      "contempt": 7265,
      "thence": 7266,
      "Chance": 7267,
      "desk": 7268,
      "apply": 7269,
      "reporting": 7270,
      "cuit": 7271,
      "walks": 7272,
      "defence": 7273,
      "Report": 7274,
      "attacked": 7275,
      "elected": 7276,
      "flower": 7277,
      "recorded": 7278,
      "McC": 7279,
      "invitation": 7280,
      "Guard": 7281,
      "leaning": 7282,
      "punishment": 7283,
      "gathered": 7284,
      "criticism": 7285,
      "savage": 7286,
      "suspicion": 7287,
      "Microsoft": 7288,
      "Cub": 7289,
      "Give": 7290,
      "Ile": 7291,
      "Pub": 7292,
      "Ra": 7293,
      "ji": 7294,
      "jet": 7295,
      "pour": 7296,
      "rally": 7297,
      "whel": 7298,
      "inner": 7299,
      "recon": 7300,
      "retain": 7301,
      "esome": 7302,
      "sector": 7303,
      "ione": 7304,
      "royal": 7305,
      "units": 7306,
      "unusual": 7307,
      "deeper": 7308,
      "agents": 7309,
      "condem": 7310,
      "frag": 7311,
      "covery": 7312,
      "predict": 7313,
      "marijuana": 7314,
      "contem": 7315,
      "obed": 7316,
      "starts": 7317,
      "150": 7318,
      "Club": 7319,
      "causes": 7320,
      "videos": 7321,
      "magic": 7322,
      "threatened": 7323,
      "opportun": 7324,
      "linked": 7325,
      "focused": 7326,
      "Canadian": 7327,
      "significantly": 7328,
      "dressed": 7329,
      "throwing": 7330,
      "emphas": 7331,
      "corporate": 7332,
      "delivered": 7333,
      "depth": 7334,
      "consumers": 7335,
      "rapidly": 7336,
      "relief": 7337,
      "refugees": 7338,
      "inspired": 7339,
      "Isabella": 7340,
      "Nantucket": 7341,
      "smallest": 7342,
      "BL": 7343,
      "Bit": 7344,
      "Elect": 7345,
      "Jay": 7346,
      "Nay": 7347,
      "Public": 7348,
      "Show": 7349,
      "Six": 7350,
      "d5": 7351,
      "glow": 7352,
      "sli": 7353,
      "zero": 7354,
      "inating": 7355,
      "allies": 7356,
      "rocks": 7357,
      "decent": 7358,
      "territ": 7359,
      "oll": 7360,
      "mood": 7361,
      "ulations": 7362,
      "aph": 7363,
      "oping": 7364,
      "prise": 7365,
      "disorder": 7366,
      "Conservative": 7367,
      "Without": 7368,
      "onsense": 7369,
      "250": 7370,
      "dealing": 7371,
      "elections": 7372,
      "geni": 7373,
      "contrary": 7374,
      "globe": 7375,
      "discussed": 7376,
      "talent": 7377,
      "symptoms": 7378,
      "targets": 7379,
      "Angeles": 7380,
      "transport": 7381,
      "models": 7382,
      "obviously": 7383,
      "melan": 7384,
      "precious": 7385,
      "Young": 7386,
      "Dur": 7387,
      "Has": 7388,
      "Home": 7389,
      "Mouse": 7390,
      "Ok": 7391,
      "River": 7392,
      "pound": 7393,
      "rand": 7394,
      "som": 7395,
      "ued": 7396,
      "vine": 7397,
      "inations": 7398,
      "std": 7399,
      "secur": 7400,
      "decre": 7401,
      "mov": 7402,
      "conqu": 7403,
      "pless": 7404,
      "anta": 7405,
      "Andrew": 7406,
      "Reuters": 7407,
      "generous": 7408,
      "Conf": 7409,
      "burgh": 7410,
      "signal": 7411,
      "Lee": 7412,
      "funny": 7413,
      "confusion": 7414,
      "experiences": 7415,
      "immigration": 7416,
      "suggests": 7417,
      "description": 7418,
      "exception": 7419,
      "Harry": 7420,
      "ASA": 7421,
      "stores": 7422,
      "soldier": 7423,
      "experts": 7424,
      "Media": 7425,
      "transp": 7426,
      "narrow": 7427,
      "foolish": 7428,
      "lawyer": 7429,
      "Jr": 7430,
      "MA": 7431,
      "Master": 7432,
      "MAN": 7433,
      "Next": 7434,
      "Open": 7435,
      "Ru": 7436,
      "SO": 7437,
      "User": 7438,
      "Vill": 7439,
      "d6": 7440,
      "gift": 7441,
      "ipped": 7442,
      "swell": 7443,
      "wore": 7444,
      "replac": 7445,
      "asion": 7446,
      "omach": 7447,
      "aye": 7448,
      "ura": 7449,
      "usawa": 7450,
      "weigh": 7451,
      "plot": 7452,
      "proving": 7453,
      "prosper": 7454,
      "endment": 7455,
      "cker": 7456,
      "intense": 7457,
      "pred": 7458,
      "serving": 7459,
      "Regeni": 7460,
      "servatives": 7461,
      "venture": 7462,
      "Road": 7463,
      "situations": 7464,
      "safely": 7465,
      "structure": 7466,
      "salt": 7467,
      "conducted": 7468,
      "requests": 7469,
      "encourage": 7470,
      "Getty": 7471,
      "Forest": 7472,
      "revenge": 7473,
      "schedule": 7474,
      "Furusawa": 7475,
      "Director": 7476,
      "Author": 7477,
      "constitutional": 7478,
      "dignity": 7479,
      "sovereign": 7480,
      "Cer": 7481,
      "Set": 7482,
      "Script": 7483,
      "Walk": 7484,
      "b7": 7485,
      "bab": 7486,
      "bind": 7487,
      "bond": 7488,
      "bull": 7489,
      "echo": 7490,
      "mam": 7491,
      "tank": 7492,
      "wave": 7493,
      "rejo": 7494,
      "icon": 7495,
      "lym": 7496,
      "agan": 7497,
      "shade": 7498,
      "apolog": 7499,
      "exert": 7500,
      "emails": 7501,
      "spout": 7502,
      "disposition": 7503,
      "uding": 7504,
      "brut": 7505,
      "attitude": 7506,
      "ailed": 7507,
      "nergy": 7508,
      "farmer": 7509,
      "Args": 7510,
      "solic": 7511,
      "0153": 7512,
      "lovely": 7513,
      "supporting": 7514,
      "answers": 7515,
      "Group": 7516,
      "unior": 7517,
      "Parad": 7518,
      "alike": 7519,
      "gloom": 7520,
      "fundament": 7521,
      "representative": 7522,
      "recovery": 7523,
      "symbol": 7524,
      "demanded": 7525,
      "Share": 7526,
      "holiday": 7527,
      "harpoon": 7528,
      "revenue": 7529,
      "relatively": 7530,
      "Braz": 7531,
      "organizations": 7532,
      "temporary": 7533,
      "Foundation": 7534,
      "Palestinian": 7535,
      "Barton": 7536,
      "Bost": 7537,
      "Ca": 7538,
      "Cre": 7539,
      "Creat": 7540,
      "Pay": 7541,
      "Peach": 7542,
      "Pyr": 7543,
      "Swed": 7544,
      "Year": 7545,
      "bits": 7546,
      "dull": 7547,
      "fires": 7548,
      "mers": 7549,
      "naked": 7550,
      "pian": 7551,
      "tune": 7552,
      "vpon": 7553,
      "wet": 7554,
      "ال": 7555,
      "onder": 7556,
      "reci": 7557,
      "ati": 7558,
      "stal": 7559,
      "stations": 7560,
      "acid": 7561,
      "utmost": 7562,
      "uncertain": 7563,
      "dogs": 7564,
      "intend": 7565,
      "llor": 7566,
      "ashes": 7567,
      "Force": 7568,
      "nights": 7569,
      "helps": 7570,
      "realize": 7571,
      "caution": 7572,
      "Color": 7573,
      "relevant": 7574,
      "classes": 7575,
      "treas": 7576,
      "potentially": 7577,
      "activists": 7578,
      "terrorist": 7579,
      "housing": 7580,
      "neglect": 7581,
      "remarkable": 7582,
      "pilot": 7583,
      "copyright": 7584,
      "Randalls": 7585,
      "exercise": 7586,
      "Irish": 7587,
      "efficient": 7588,
      "pattern": 7589,
      "Afghanistan": 7590,
      "database": 7591,
      "AA": 7592,
      "Ari": 7593,
      "Ice": 7594,
      "Mess": 7595,
      "Penn": 7596,
      "athan": 7597,
      "greg": 7598,
      "gaz": 7599,
      "iency": 7600,
      "lake": 7601,
      "rick": 7602,
      "rating": 7603,
      "vous": 7604,
      "infect": 7605,
      "anes": 7606,
      "recru": 7607,
      "stab": 7608,
      "seated": 7609,
      "chase": 7610,
      "lift": 7611,
      "rival": 7612,
      "absent": 7613,
      "igan": 7614,
      "assess": 7615,
      "overcome": 7616,
      "Android": 7617,
      "disposed": 7618,
      "Chan": 7619,
      "ictions": 7620,
      "cheek": 7621,
      "investors": 7622,
      "buildings": 7623,
      "ATA": 7624,
      "necessarily": 7625,
      "editor": 7626,
      "practices": 7627,
      "conclusion": 7628,
      "Palmer": 7629,
      "suspected": 7630,
      "====": 7631,
      "Foreign": 7632,
      "fifty": 7633,
      "vaccine": 7634,
      "dynam": 7635,
      "Dream": 7636,
      "perspective": 7637,
      "Boston": 7638,
      "Cross": 7639,
      "Ep": 7640,
      "Glo": 7641,
      "Kar": 7642,
      "Main": 7643,
      "Py": 7644,
      "fel": 7645,
      "nic": 7646,
      "nigh": 7647,
      "obey": 7648,
      "pow": 7649,
      "atre": 7650,
      "asa": 7651,
      "shirt": 7652,
      "posure": 7653,
      "optim": 7654,
      "proportion": 7655,
      "indul": 7656,
      "cock": 7657,
      "server": 7658,
      "contest": 7659,
      "carri": 7660,
      "Soon": 7661,
      "joke": 7662,
      "subsequ": 7663,
      "extended": 7664,
      "presently": 7665,
      "aimed": 7666,
      "kinds": 7667,
      "Common": 7668,
      "defensive": 7669,
      "posts": 7670,
      "falls": 7671,
      "Cole": 7672,
      "Work": 7673,
      "papa": 7674,
      "addressed": 7675,
      "delightful": 7676,
      "suspended": 7677,
      "specifically": 7678,
      "enjoyed": 7679,
      "panel": 7680,
      "Offic": 7681,
      "repeatedly": 7682,
      "Miami": 7683,
      "proposals": 7684,
      "Henri": 7685,
      "establishment": 7686,
      "democracy": 7687,
      "substance": 7688,
      "updates": 7689,
      "guests": 7690,
      "precisely": 7691,
      "Rabbit": 7692,
      "Satan": 7693,
      "94": 7694,
      "Fil": 7695,
      "Key": 7696,
      "PAR": 7697,
      "Rory": 7698,
      "Tell": 7699,
      "gig": 7700,
      "jazz": 7701,
      "ov": 7702,
      "sive": 7703,
      "ya": 7704,
      "inf": 7705,
      "ouri": 7706,
      "eding": 7707,
      "charming": 7708,
      "unic": 7709,
      "abroad": 7710,
      "mann": 7711,
      "Head": 7712,
      "disci": 7713,
      "forever": 7714,
      "attending": 7715,
      "mond": 7716,
      "lesson": 7717,
      "phon": 7718,
      "founder": 7719,
      "burning": 7720,
      "elsewhere": 7721,
      "developers": 7722,
      "barrel": 7723,
      "stepped": 7724,
      "painful": 7725,
      "admit": 7726,
      "ederation": 7727,
      "visitors": 7728,
      "ridic": 7729,
      "labour": 7730,
      "despair": 7731,
      "humour": 7732,
      "protesters": 7733,
      "Jonah": 7734,
      "skills": 7735,
      "brave": 7736,
      "diplomatic": 7737,
      "coalition": 7738,
      "incredible": 7739,
      "random": 7740,
      "Peachtree": 7741,
      "82": 7742,
      "Bas": 7743,
      "ION": 7744,
      "NE": 7745,
      "Ophe": 7746,
      "Rod": 7747,
      "Sa": 7748,
      "Tube": 7749,
      "bble": 7750,
      "c6": 7751,
      "cence": 7752,
      "lately": 7753,
      "rical": 7754,
      "tear": 7755,
      "tub": 7756,
      "wire": 7757,
      "insurance": 7758,
      "orient": 7759,
      "ington": 7760,
      "amuse": 7761,
      "cease": 7762,
      "destruction": 7763,
      "uss": 7764,
      "novel": 7765,
      "formal": 7766,
      "carbon": 7767,
      "coll": 7768,
      "breathe": 7769,
      "warning": 7770,
      "factors": 7771,
      "helpful": 7772,
      "burden": 7773,
      "musical": 7774,
      "misery": 7775,
      "horrible": 7776,
      "southern": 7777,
      "concerning": 7778,
      "plicit": 7779,
      "Something": 7780,
      "decline": 7781,
      "imming": 7782,
      "delicate": 7783,
      "sailors": 7784,
      "widely": 7785,
      "daughters": 7786,
      "Steel": 7787,
      "belonged": 7788,
      "captured": 7789,
      "maintained": 7790,
      "conceal": 7791,
      "holes": 7792,
      "teachers": 7793,
      "Thanks": 7794,
      "literally": 7795,
      "district": 7796,
      "convenient": 7797,
      "schol": 7798,
      "wretched": 7799,
      "Dal": 7800,
      "Fest": 7801,
      "Low": 7802,
      "Tenn": 7803,
      "c3": 7804,
      "cers": 7805,
      "gang": 7806,
      "mical": 7807,
      "mitted": 7808,
      "tale": 7809,
      "wax": 7810,
      "enh": 7811,
      "ala": 7812,
      "vet": 7813,
      "forty": 7814,
      "abort": 7815,
      "elson": 7816,
      "expl": 7817,
      "artists": 7818,
      "seless": 7819,
      "spare": 7820,
      "ached": 7821,
      "brilli": 7822,
      "Stan": 7823,
      "monarch": 7824,
      "shouldn": 7825,
      "writers": 7826,
      "regional": 7827,
      "foundation": 7828,
      "instinct": 7829,
      "shake": 7830,
      "Cons": 7831,
      "follows": 7832,
      "nearby": 7833,
      "listed": 7834,
      "steel": 7835,
      "LeBron": 7836,
      "responding": 7837,
      "Royal": 7838,
      "deaths": 7839,
      "gently": 7840,
      "habits": 7841,
      "Music": 7842,
      "necessity": 7843,
      "describe": 7844,
      "sails": 7845,
      "borrow": 7846,
      "lamb": 7847,
      "terrorism": 7848,
      "Steve": 7849,
      "dependent": 7850,
      "digital": 7851,
      "containing": 7852,
      "ranks": 7853,
      "assume": 7854,
      "Square": 7855,
      "inquiry": 7856,
      "Ukraine": 7857,
      "currency": 7858,
      "prejudice": 7859,
      "poverty": 7860,
      "Brazil": 7861,
      "04": 7862,
      "Cat": 7863,
      "Dom": 7864,
      "Ever": 7865,
      "Kat": 7866,
      "Know": 7867,
      "Pip": 7868,
      "Spr": 7869,
      "Sever": 7870,
      "b2": 7871,
      "cable": 7872,
      "intr": 7873,
      "theme": 7874,
      "atures": 7875,
      "seam": 7876,
      "ette": 7877,
      "suicide": 7878,
      "deleg": 7879,
      "confin": 7880,
      "loans": 7881,
      "loving": 7882,
      "0002": 7883,
      "hadn": 7884,
      "offin": 7885,
      "berry": 7886,
      "YouTube": 7887,
      "smen": 7888,
      "Marg": 7889,
      "anna": 7890,
      "2002": 7891,
      "gible": 7892,
      "plainly": 7893,
      "Should": 7894,
      "dropping": 7895,
      "Moby": 7896,
      "Ministers": 7897,
      "technical": 7898,
      "developing": 7899,
      "sailor": 7900,
      "arguments": 7901,
      "reportedly": 7902,
      "protests": 7903,
      "roughly": 7904,
      "regularly": 7905,
      "mountains": 7906,
      "journalists": 7907,
      "Liberal": 7908,
      "Southern": 7909,
      "granted": 7910,
      "micro": 7911,
      "rejected": 7912,
      "Wheeler": 7913,
      "Carolina": 7914,
      "Sidney": 7915,
      "opportunities": 7916,
      "600": 7917,
      "8f": 7918,
      "CS": 7919,
      "Hon": 7920,
      "Hou": 7921,
      "Human": 7922,
      "Kh": 7923,
      "LB": 7924,
      "Nav": 7925,
      "Pall": 7926,
      "Pres": 7927,
      "faint": 7928,
      "penter": 7929,
      "pipe": 7930,
      "rust": 7931,
      "ani": 7932,
      "recovered": 7933,
      "stim": 7934,
      "oral": 7935,
      "accompan": 7936,
      "whist": 7937,
      "absor": 7938,
      "abrupt": 7939,
      "modif": 7940,
      "appreh": 7941,
      "grind": 7942,
      "umber": 7943,
      "selling": 7944,
      "affil": 7945,
      "boost": 7946,
      "izes": 7947,
      "column": 7948,
      "legend": 7949,
      "0152": 7950,
      "Attor": 7951,
      "minded": 7952,
      "grees": 7953,
      "retire": 7954,
      "causing": 7955,
      "prominent": 7956,
      "swim": 7957,
      "drove": 7958,
      "basically": 7959,
      "altered": 7960,
      "division": 7961,
      "quarters": 7962,
      "represented": 7963,
      "natured": 7964,
      "Turkey": 7965,
      "Techn": 7966,
      "requirements": 7967,
      "client": 7968,
      "Williams": 7969,
      "rifice": 7970,
      "Loveit": 7971,
      "pilots": 7972,
      "legisl": 7973,
      "knees": 7974,
      "opponent": 7975,
      "vehicles": 7976,
      "reputation": 7977,
      "discipl": 7978,
      "6e": 7979,
      "Cup": 7980,
      "Dev": 7981,
      "Gent": 7982,
      "Mem": 7983,
      "Run": 7984,
      "Say": 7985,
      "Sometimes": 7986,
      "Tour": 7987,
      "Top": 7988,
      "bree": 7989,
      "ders": 7990,
      "dies": 7991,
      "gg": 7992,
      "leness": 7993,
      "pence": 7994,
      "rase": 7995,
      "scan": 7996,
      "insect": 7997,
      "stol": 7998,
      "asleep": 7999,
      "roit": 8000,
      "lio": 8001,
      "ags": 8002,
      "termin": 8003,
      "ctic": 8004,
      "doe": 8005,
      "indis": 8006,
      "oking": 8007,
      "venue": 8008,
      "ideal": 8009,
      "parted": 8010,
      "partial": 8011,
      "firms": 8012,
      "medic": 8013,
      "Brad": 8014,
      "visions": 8015,
      "Marine": 8016,
      "warrant": 8017,
      "deny": 8018,
      "cheap": 8019,
      "hardware": 8020,
      "ski": 8021,
      "meetings": 8022,
      "elev": 8023,
      "hypo": 8024,
      "Spider": 8025,
      "deadly": 8026,
      "roads": 8027,
      "ISIS": 8028,
      "wondering": 8029,
      "styles": 8030,
      "sprang": 8031,
      "explains": 8032,
      "secretary": 8033,
      "touching": 8034,
      "links": 8035,
      "intelli": 8036,
      "jealous": 8037,
      "secured": 8038,
      "Simba": 8039,
      "heroes": 8040,
      "knee": 8041,
      "elder": 8042,
      "elegant": 8043,
      "Victor": 8044,
      "Spanish": 8045,
      "7f": 8046,
      "Ama": 8047,
      "Buck": 8048,
      "Hist": 8049,
      "Je": 8050,
      "Mir": 8051,
      "Orig": 8052,
      "Theres": 8053,
      "Vi": 8054,
      "Wild": 8055,
      "],": 8056,
      "bark": 8057,
      "cod": 8058,
      "cited": 8059,
      "mund": 8060,
      "ole": 8061,
      "wal": 8062,
      "zer": 8063,
      "oration": 8064,
      "iti": 8065,
      "bels": 8066,
      "liqu": 8067,
      "defeat": 8068,
      "degrees": 8069,
      "tern": 8070,
      "elim": 8071,
      "western": 8072,
      "trump": 8073,
      "00000003": 8074,
      "worried": 8075,
      "geon": 8076,
      "ishop": 8077,
      "0145": 8078,
      "forehead": 8079,
      "county": 8080,
      "1980": 8081,
      "collap": 8082,
      "mense": 8083,
      "drunk": 8084,
      "uggling": 8085,
      "Contin": 8086,
      "2001": 8087,
      "governor": 8088,
      "harder": 8089,
      "publicly": 8090,
      "volume": 8091,
      "networks": 8092,
      "functions": 8093,
      "classic": 8094,
      "ruling": 8095,
      "welfare": 8096,
      "flex": 8097,
      "communications": 8098,
      "joining": 8099,
      "Finally": 8100,
      "emotional": 8101,
      "reserved": 8102,
      "Putin": 8103,
      "Labour": 8104,
      "Mexico": 8105,
      "scheduled": 8106,
      "nagaimo": 8107,
      "Attorney": 8108,
      "Theresa": 8109,
      "03": 8110,
      "DC": 8111,
      "Dark": 8112,
      "GE": 8113,
      "Much": 8114,
      "Mob": 8115,
      "Ox": 8116,
      "Tra": 8117,
      "Wis": 8118,
      "].": 8119,
      "cation": 8120,
      "cig": 8121,
      "cake": 8122,
      "nonsense": 8123,
      "rd": 8124,
      "tion": 8125,
      "tie": 8126,
      "inate": 8127,
      "rear": 8128,
      "straw": 8129,
      "toxic": 8130,
      "chat": 8131,
      "unhappy": 8132,
      "rie": 8133,
      "defe": 8134,
      "elo": 8135,
      "weird": 8136,
      "appl": 8137,
      "covers": 8138,
      "ounce": 8139,
      "longed": 8140,
      "forming": 8141,
      "lasting": 8142,
      "bug": 8143,
      "buried": 8144,
      "lighted": 8145,
      "commonly": 8146,
      "Soci": 8147,
      "inclined": 8148,
      "insisted": 8149,
      "northern": 8150,
      "Click": 8151,
      "steam": 8152,
      "kills": 8153,
      "Doctor": 8154,
      "effectively": 8155,
      "hoping": 8156,
      "imagined": 8157,
      "threatening": 8158,
      "combination": 8159,
      "exciting": 8160,
      "conscience": 8161,
      "ENT": 8162,
      "spiritual": 8163,
      "sacrifice": 8164,
      "detailed": 8165,
      "amiable": 8166,
      "preparing": 8167,
      "vocalist": 8168,
      "techniques": 8169,
      "desperate": 8170,
      "Energy": 8171,
      "GM": 8172,
      "Nick": 8173,
      "NOT": 8174,
      "PG": 8175,
      "View": 8176,
      "sque": 8177,
      "iner": 8178,
      "isms": 8179,
      "alo": 8180,
      "itar": 8181,
      "selection": 8182,
      "bearing": 8183,
      "academ": 8184,
      "unlike": 8185,
      "eline": 8186,
      "urn": 8187,
      "keen": 8188,
      "exha": 8189,
      "articles": 8190,
      "clin": 8191,
      "partly": 8192,
      "ailing": 8193,
      "landing": 8194,
      "interpret": 8195,
      "encing": 8196,
      "Prin": 8197,
      "True": 8198,
      "joys": 8199,
      "finds": 8200,
      "solve": 8201,
      "equival": 8202,
      "aughter": 8203,
      "movements": 8204,
      "incere": 8205,
      "funds": 8206,
      "Charlot": 8207,
      "bills": 8208,
      "introduction": 8209,
      "caption": 8210,
      "neighbours": 8211,
      "Deaths": 8212,
      "asylum": 8213,
      "consequences": 8214,
      "weakness": 8215,
      "featured": 8216,
      "Philip": 8217,
      "perceive": 8218,
      "surrounding": 8219,
      "astonishment": 8220,
      "Against": 8221,
      "Asia": 8222,
      "torture": 8223,
      "Georgia": 8224,
      "\"--": 8225,
      "BE": 8226,
      "Bild": 8227,
      "BBC": 8228,
      "DA": 8229,
      "Eric": 8230,
      "Jeff": 8231,
      "Kim": 8232,
      "Rog": 8233,
      "bars": 8234,
      "dur": 8235,
      "jam": 8236,
      "wins": 8237,
      "zes": 8238,
      "thed": 8239,
      "item": 8240,
      "heed": 8241,
      "wholly": 8242,
      "neys": 8243,
      "convent": 8244,
      "mankind": 8245,
      "oren": 8246,
      "afted": 8247,
      "overwhel": 8248,
      "contained": 8249,
      "awful": 8250,
      "compare": 8251,
      "identified": 8252,
      "consol": 8253,
      "Therefore": 8254,
      "factor": 8255,
      "differences": 8256,
      "equip": 8257,
      "shoes": 8258,
      "silly": 8259,
      "doub": 8260,
      "twitter": 8261,
      "autumn": 8262,
      "examples": 8263,
      "laughter": 8264,
      "magazine": 8265,
      "starter": 8266,
      "wedding": 8267,
      "complaint": 8268,
      "referred": 8269,
      "improvement": 8270,
      "environmental": 8271,
      "allegedly": 8272,
      "Further": 8273,
      "challenges": 8274,
      "harpooneer": 8275,
      "vulner": 8276,
      "neighborhood": 8277,
      "legitimate": 8278,
      "Levia": 8279,
      "restaurant": 8280,
      "1a": 8281,
      "Cop": 8282,
      "Data": 8283,
      "FO": 8284,
      "Mu": 8285,
      "Us": 8286,
      "bin": 8287,
      "bay": 8288,
      "rell": 8289,
      "replace": 8290,
      "aron": 8291,
      "seats": 8292,
      "beer": 8293,
      "whence": 8294,
      "conver": 8295,
      "lover": 8296,
      "endless": 8297,
      "actors": 8298,
      "blast": 8299,
      "discovery": 8300,
      "ptions": 8301,
      "justified": 8302,
      "compens": 8303,
      "wherever": 8304,
      "ials": 8305,
      "phant": 8306,
      "chemical": 8307,
      "purposes": 8308,
      "retail": 8309,
      "reflection": 8310,
      "promote": 8311,
      "arrive": 8312,
      "profits": 8313,
      "profile": 8314,
      "00000012": 8315,
      "horror": 8316,
      "trained": 8317,
      "reaching": 8318,
      "processing": 8319,
      "practical": 8320,
      "hammer": 8321,
      "bike": 8322,
      "cultural": 8323,
      "squad": 8324,
      "Jackal": 8325,
      "bulk": 8326,
      "allegations": 8327,
      "glasses": 8328,
      "chairman": 8329,
      "fatal": 8330,
      "frequent": 8331,
      "birthday": 8332,
      "hibit": 8333,
      "throat": 8334,
      "convenience": 8335,
      "analyst": 8336,
      "accurate": 8337,
      "mystery": 8338,
      "Detroit": 8339,
      "indifferent": 8340,
      "acknowledged": 8341,
      "Spirit": 8342,
      "Uppercross": 8343,
      "Chancellor": 8344,
      "Paradise": 8345,
      "accompanied": 8346,
      "Call": 8347,
      "Fer": 8348,
      "Harr": 8349,
      "HER": 8350,
      "Live": 8351,
      "Mot": 8352,
      "NASA": 8353,
      "Pot": 8354,
      "TS": 8355,
      "Text": 8356,
      "Ul": 8357,
      "cot": 8358,
      "cue": 8359,
      "foul": 8360,
      "gif": 8361,
      "iat": 8362,
      "vouch": 8363,
      "incent": 8364,
      "enable": 8365,
      "stall": 8366,
      "inger": 8367,
      "aland": 8368,
      "assets": 8369,
      "itudes": 8370,
      "beef": 8371,
      "beating": 8372,
      "adio": 8373,
      "adopt": 8374,
      "forbid": 8375,
      "immense": 8376,
      "root": 8377,
      "default": 8378,
      "modest": 8379,
      "poison": 8380,
      "poems": 8381,
      "proach": 8382,
      "astru": 8383,
      "cano": 8384,
      "spel": 8385,
      "Information": 8386,
      "offence": 8387,
      "disclo": 8388,
      "presum": 8389,
      "strongest": 8390,
      "teacher": 8391,
      "speake": 8392,
      "Champion": 8393,
      "Chamber": 8394,
      "wars": 8395,
      "extensive": 8396,
      "payment": 8397,
      "ruin": 8398,
      "midnight": 8399,
      "sweep": 8400,
      "souls": 8401,
      "Carlo": 8402,
      "ATE": 8403,
      "strikes": 8404,
      "Abbey": 8405,
      "competitive": 8406,
      "Turk": 8407,
      "smoking": 8408,
      "targeted": 8409,
      "bounds": 8410,
      "uttered": 8411,
      "reveal": 8412,
      "Daniel": 8413,
      "encouraged": 8414,
      "occasionally": 8415,
      "neighbourhood": 8416,
      "exceedingly": 8417,
      "typically": 8418,
      "instrument": 8419,
      "authors": 8420,
      "argue": 8421,
      "Henrietta": 8422,
      "Margaret": 8423,
      "Bildad": 8424,
      "astructure": 8425,
      "Broad": 8426,
      "Care": 8427,
      "Happ": 8428,
      "Having": 8429,
      "Jed": 8430,
      "Jes": 8431,
      "List": 8432,
      "Nev": 8433,
      "Source": 8434,
      "Ted": 8435,
      "bath": 8436,
      "bush": 8437,
      "bunch": 8438,
      "gon": 8439,
      "kil": 8440,
      "lamp": 8441,
      "sits": 8442,
      "tip": 8443,
      "vague": 8444,
      "anonym": 8445,
      "oubted": 8446,
      "arose": 8447,
      "icts": 8448,
      "entit": 8449,
      "chess": 8450,
      "withdraw": 8451,
      "debut": 8452,
      "neut": 8453,
      "conve": 8454,
      "sham": 8455,
      "appreci": 8456,
      "grid": 8457,
      "landlord": 8458,
      "regions": 8459,
      "visiting": 8460,
      "appearing": 8461,
      "glut": 8462,
      "lawsuit": 8463,
      "expectation": 8464,
      "sentiment": 8465,
      "rude": 8466,
      "Blake": 8467,
      "1992": 8468,
      "Harville": 8469,
      "approached": 8470,
      "penal": 8471,
      "Davis": 8472,
      "broadcast": 8473,
      "sensitive": 8474,
      "capture": 8475,
      "shadows": 8476,
      "occupation": 8477,
      "planted": 8478,
      "sacred": 8479,
      "https": 8480,
      "democratic": 8481,
      "wounded": 8482,
      "route": 8483,
      "lynch": 8484,
      "observation": 8485,
      "chapter": 8486,
      "bacter": 8487,
      "compassion": 8488,
      "Hardy": 8489,
      "escaped": 8490,
      "sympathy": 8491,
      "Zealand": 8492,
      "Science": 8493,
      "territory": 8494,
      "Certain": 8495,
      "Brian": 8496,
      "Cleve": 8497,
      "Dar": 8498,
      "Nation": 8499,
      "Nob": 8500,
      "Os": 8501,
      "Ter": 8502,
      "c4": 8503,
      "dar": 8504,
      "hollow": 8505,
      "penny": 8506,
      "rict": 8507,
      "uine": 8508,
      "inser": 8509,
      "orate": 8510,
      "aloft": 8511,
      "anda": 8512,
      "ario": 8513,
      "asm": 8514,
      "itals": 8515,
      "forgive": 8516,
      "ches": 8517,
      "suits": 8518,
      "ola": 8519,
      "congress": 8520,
      "loves": 8521,
      "resign": 8522,
      "antasy": 8523,
      "--'": 8524,
      "doom": 8525,
      "sheet": 8526,
      "Into": 8527,
      "ivory": 8528,
      "hob": 8529,
      "obsc": 8530,
      "identify": 8531,
      "Prot": 8532,
      "Sovi": 8533,
      "Ann": 8534,
      "Real": 8535,
      "gotten": 8536,
      "realized": 8537,
      "retreat": 8538,
      "films": 8539,
      "array": 8540,
      "approval": 8541,
      "continuing": 8542,
      "picking": 8543,
      "repeat": 8544,
      "threats": 8545,
      "Peleg": 8546,
      "conviction": 8547,
      "Plus": 8548,
      "ALL": 8549,
      "panic": 8550,
      "package": 8551,
      "steadily": 8552,
      "duties": 8553,
      "contains": 8554,
      "folded": 8555,
      "Rights": 8556,
      "virtue": 8557,
      "shouted": 8558,
      "urious": 8559,
      "entertainment": 8560,
      "component": 8561,
      "immortal": 8562,
      "Pubmed": 8563,
      "Ariz": 8564,
      "Cleveland": 8565,
      "96": 8566,
      "Bon": 8567,
      "Camer": 8568,
      "Dutch": 8569,
      "Mich": 8570,
      "Muf": 8571,
      "Use": 8572,
      "ais": 8573,
      "cular": 8574,
      "ike": 8575,
      "iate": 8576,
      "mud": 8577,
      "pip": 8578,
      "rim": 8579,
      "zon": 8580,
      "replaced": 8581,
      "seized": 8582,
      "accus": 8583,
      "veget": 8584,
      "amy": 8585,
      "uted": 8586,
      "rod": 8587,
      "unfortunate": 8588,
      "riel": 8589,
      "urged": 8590,
      "usage": 8591,
      "composed": 8592,
      "apple": 8593,
      "oph": 8594,
      "oppose": 8595,
      "aka": 8596,
      "coordin": 8597,
      "Invest": 8598,
      "controlled": 8599,
      "xture": 8600,
      "landed": 8601,
      "carpenter": 8602,
      "lined": 8603,
      "mainstream": 8604,
      "azi": 8605,
      "norm": 8606,
      "shaped": 8607,
      "archite": 8608,
      "corn": 8609,
      "thyself": 8610,
      "equality": 8611,
      "summit": 8612,
      "USA": 8613,
      "tower": 8614,
      "humanity": 8615,
      "swear": 8616,
      "Project": 8617,
      "probable": 8618,
      "expense": 8619,
      "49ers": 8620,
      "dedic": 8621,
      "Croft": 8622,
      "behaviors": 8623,
      "Description": 8624,
      "deserved": 8625,
      "increases": 8626,
      "recommended": 8627,
      "persuade": 8628,
      "disappointment": 8629,
      "arranged": 8630,
      "arrangement": 8631,
      "sustain": 8632,
      "District": 8633,
      "ceremony": 8634,
      "Self": 8635,
      "subsid": 8636,
      "Palladio": 8637,
      "stolen": 8638,
      "Society": 8639,
      "Die": 8640,
      "Ev": 8641,
      "Fat": 8642,
      "Him": 8643,
      "Jason": 8644,
      "Kick": 8645,
      "LO": 8646,
      "NS": 8647,
      "NY": 8648,
      "Oak": 8649,
      "Stop": 8650,
      "Van": 8651,
      "Vene": 8652,
      "VPN": 8653,
      "a4": 8654,
      "farms": 8655,
      "grief": 8656,
      "ij": 8657,
      "jury": 8658,
      "pist": 8659,
      "pens": 8660,
      "sne": 8661,
      "sincere": 8662,
      "tent": 8663,
      "yle": 8664,
      "zuel": 8665,
      "staring": 8666,
      "tomorrow": 8667,
      "isan": 8668,
      "alu": 8669,
      "aru": 8670,
      "itate": 8671,
      "otes": 8672,
      "unted": 8673,
      "unexpected": 8674,
      "haz": 8675,
      "neat": 8676,
      "mole": 8677,
      "output": 8678,
      "essentially": 8679,
      "isting": 8680,
      "Thunder": 8681,
      "boot": 8682,
      "dislike": 8683,
      "diseas": 8684,
      "icken": 8685,
      "awk": 8686,
      "buying": 8687,
      "coloured": 8688,
      "Tru": 8689,
      "passes": 8690,
      "Marquis": 8691,
      "charging": 8692,
      "valley": 8693,
      "powered": 8694,
      "foe": 8695,
      "producing": 8696,
      "transition": 8697,
      "Godd": 8698,
      "Grant": 8699,
      "successfully": 8700,
      "Felix": 8701,
      "motiv": 8702,
      "Barack": 8703,
      "ESPN": 8704,
      "introduce": 8705,
      "suspicious": 8706,
      "pulling": 8707,
      "titles": 8708,
      "Sept": 8709,
      "complaints": 8710,
      "Half": 8711,
      "proceeded": 8712,
      "folks": 8713,
      "Kellynch": 8714,
      "obedience": 8715,
      "Colorado": 8716,
      "Venezuel": 8717,
      "Aaron": 8718,
      "Civ": 8719,
      "Cape": 8720,
      "Edu": 8721,
      "Gil": 8722,
      "Rub": 8723,
      "Tis": 8724,
      "dun": 8725,
      "fasc": 8726,
      "kitch": 8727,
      "lvan": 8728,
      "punch": 8729,
      "thir": 8730,
      "ongoing": 8731,
      "represents": 8732,
      "itarian": 8733,
      "accord": 8734,
      "robot": 8735,
      "haste": 8736,
      "mock": 8737,
      "Thee": 8738,
      "weep": 8739,
      "apartment": 8740,
      "umps": 8741,
      "auen": 8742,
      "clar": 8743,
      "boots": 8744,
      "Station": 8745,
      "icket": 8746,
      "flame": 8747,
      "greatly": 8748,
      "playoff": 8749,
      "registered": 8750,
      "surd": 8751,
      "Trade": 8752,
      "choly": 8753,
      "Margery": 8754,
      "parliament": 8755,
      "fewer": 8756,
      "Beat": 8757,
      "followers": 8758,
      "Within": 8759,
      "purple": 8760,
      "caut": 8761,
      "shocked": 8762,
      "freely": 8763,
      "miserable": 8764,
      "genuine": 8765,
      "breaks": 8766,
      "appearances": 8767,
      "Pool": 8768,
      "involving": 8769,
      "crossed": 8770,
      "Place": 8771,
      "Major": 8772,
      "remarks": 8773,
      "Brother": 8774,
      "heavenly": 8775,
      "parking": 8776,
      "institution": 8777,
      "substant": 8778,
      "lawyers": 8779,
      "whalemen": 8780,
      "Assange": 8781,
      "desirable": 8782,
      "melancholy": 8783,
      "powder": 8784,
      "equipment": 8785,
      "Leviathan": 8786,
      "Mufasa": 8787,
      "1000": 8788,
      "92": 8789,
      "Ash": 8790,
      "Cher": 8791,
      "DS": 8792,
      "Fed": 8793,
      "Five": 8794,
      "Gard": 8795,
      "Hold": 8796,
      "JA": 8797,
      "Lion": 8798,
      "Log": 8799,
      "Mountain": 8800,
      "Others": 8801,
      "Olym": 8802,
      "RA": 8803,
      "Sey": 8804,
      "UP": 8805,
      "VI": 8806,
      "Wel": 8807,
      "a0": 8808,
      "dad": 8809,
      "gage": 8810,
      "rhe": 8811,
      "uct": 8812,
      "vary": 8813,
      "relie": 8814,
      "seld": 8815,
      "beloved": 8816,
      "idle": 8817,
      "rol": 8818,
      "unlikely": 8819,
      "terr": 8820,
      "neur": 8821,
      "nell": 8822,
      "bye": 8823,
      "orted": 8824,
      "elling": 8825,
      "span": 8826,
      "sip": 8827,
      "sized": 8828,
      "craw": 8829,
      "selfish": 8830,
      "holy": 8831,
      "tech": 8832,
      "flaw": 8833,
      "flatter": 8834,
      "lightning": 8835,
      "nervous": 8836,
      "visual": 8837,
      "Dean": 8838,
      "subtle": 8839,
      "membr": 8840,
      "Unfortunately": 8841,
      "lawmakers": 8842,
      "rounds": 8843,
      "ologies": 8844,
      "Gods": 8845,
      "creative": 8846,
      "stopping": 8847,
      "drops": 8848,
      "pleasing": 8849,
      "sounded": 8850,
      "pains": 8851,
      "painted": 8852,
      "traditions": 8853,
      "execution": 8854,
      "Benwick": 8855,
      "protected": 8856,
      "inches": 8857,
      "fifth": 8858,
      "battles": 8859,
      "updated": 8860,
      "stroke": 8861,
      "hibition": 8862,
      "dispute": 8863,
      "infrastructure": 8864,
      "Tennes": 8865,
      "neutral": 8866,
      "Ali": 8867,
      "Diet": 8868,
      "Fish": 8869,
      "Gal": 8870,
      "Han": 8871,
      "Loc": 8872,
      "Mali": 8873,
      "Rap": 8874,
      "UI": 8875,
      "Ut": 8876,
      "eastern": 8877,
      "lux": 8878,
      "oon": 8879,
      "slip": 8880,
      "yd": 8881,
      "inction": 8882,
      "recover": 8883,
      "edges": 8884,
      "leis": 8885,
      "utility": 8886,
      "etime": 8887,
      "rive": 8888,
      "absurd": 8889,
      "ulf": 8890,
      "plank": 8891,
      "proto": 8892,
      "proced": 8893,
      "00000004": 8894,
      "Whatever": 8895,
      "clam": 8896,
      "spake": 8897,
      "carries": 8898,
      "ponder": 8899,
      "instances": 8900,
      "inclination": 8901,
      "Being": 8902,
      "bloody": 8903,
      "steep": 8904,
      "keeps": 8905,
      "Northern": 8906,
      "reporter": 8907,
      "countless": 8908,
      "circuit": 8909,
      "attacking": 8910,
      "altern": 8911,
      "influenced": 8912,
      "Macbeth": 8913,
      "convince": 8914,
      "mount": 8915,
      "trol": 8916,
      "Everyone": 8917,
      "hungry": 8918,
      "functional": 8919,
      "bucket": 8920,
      "Special": 8921,
      "reserve": 8922,
      "pursued": 8923,
      "bassador": 8924,
      "Trek": 8925,
      "components": 8926,
      "Modern": 8927,
      "Company": 8928,
      "Matthe": 8929,
      "Lyme": 8930,
      "Bursal": 8931,
      "complicated": 8932,
      "Soviet": 8933,
      "awkward": 8934,
      "120": 8935,
      "97": 8936,
      "Bri": 8937,
      "Cro": 8938,
      "Eag": 8939,
      "Econom": 8940,
      "Ford": 8941,
      "Mass": 8942,
      "NFL": 8943,
      "PO": 8944,
      "Rome": 8945,
      "Tony": 8946,
      "ees": 8947,
      "gust": 8948,
      "gence": 8949,
      "hatch": 8950,
      "ios": 8951,
      "lone": 8952,
      "nick": 8953,
      "pup": 8954,
      "rack": 8955,
      "uen": 8956,
      "tops": 8957,
      "iture": 8958,
      "bee": 8959,
      "accommod": 8960,
      "forcing": 8961,
      "chart": 8962,
      "charm": 8963,
      "agitation": 8964,
      "elite": 8965,
      "00000002": 8966,
      "permission": 8967,
      "gray": 8968,
      "este": 8969,
      "sial": 8970,
      "discer": 8971,
      "disappeared": 8972,
      "hook": 8973,
      "aved": 8974,
      "strain": 8975,
      "goodness": 8976,
      "lessons": 8977,
      "scand": 8978,
      "landscape": 8979,
      "wrapped": 8980,
      "heading": 8981,
      "phan": 8982,
      "drous": 8983,
      "begged": 8984,
      "parade": 8985,
      "cheese": 8986,
      "tribut": 8987,
      "continually": 8988,
      "0154": 8989,
      "differently": 8990,
      "approxim": 8991,
      "ucing": 8992,
      "profound": 8993,
      "hyper": 8994,
      "judged": 8995,
      "plicity": 8996,
      "traits": 8997,
      "acceptable": 8998,
      "Feb": 8999,
      "voting": 9000,
      "imagination": 9001,
      "crossing": 9002,
      "mounted": 9003,
      "Plan": 9004,
      "definition": 9005,
      "failing": 9006,
      "faithful": 9007,
      "tracks": 9008,
      "temperature": 9009,
      "depends": 9010,
      "empire": 9011,
      "estimates": 9012,
      "machines": 9013,
      "gods": 9014,
      "Subaru": 9015,
      "inferior": 9016,
      "sanctions": 9017,
      "eldest": 9018,
      "mysterious": 9019,
      "whispered": 9020,
      "Defense": 9021,
      "advocates": 9022,
      "festival": 9023,
      "indifference": 9024,
      "assembly": 9025,
      "MORE": 9026,
      "jesty": 9027,
      "infinite": 9028,
      "html": 9029,
      "Family": 9030,
      "chimney": 9031,
      "oubtedly": 9032,
      "Card": 9033,
      "Eastern": 9034,
      "Gab": 9035,
      "HD": 9036,
      "IF": 9037,
      "Pil": 9038,
      "Pos": 9039,
      "Person": 9040,
      "Ren": 9041,
      "Round": 9042,
      "Rather": 9043,
      "Revolution": 9044,
      "Song": 9045,
      "Ur": 9046,
      "b3": 9047,
      "bation": 9048,
      "cats": 9049,
      "coffin": 9050,
      "dit": 9051,
      "gates": 9052,
      "jan": 9053,
      "jun": 9054,
      "lane": 9055,
      "nament": 9056,
      "pile": 9057,
      "rows": 9058,
      "theories": 9059,
      "envelo": 9060,
      "ita": 9061,
      "behalf": 9062,
      "adult": 9063,
      "whir": 9064,
      "neath": 9065,
      "sher": 9066,
      "ante": 9067,
      "manip": 9068,
      "endor": 9069,
      "prince": 9070,
      "asser": 9071,
      "sives": 9072,
      "justify": 9073,
      "reader": 9074,
      "adds": 9075,
      "cleared": 9076,
      "Develo": 9077,
      "engers": 9078,
      "Howard": 9079,
      "shapes": 9080,
      "solved": 9081,
      "pursuit": 9082,
      "openly": 9083,
      "Collection": 9084,
      "bands": 9085,
      "00000010": 9086,
      "00000011": 9087,
      "sorts": 9088,
      "Austin": 9089,
      "acquired": 9090,
      "surprising": 9091,
      "peaceful": 9092,
      "madam": 9093,
      "terrorists": 9094,
      "troubles": 9095,
      "gradually": 9096,
      "assumed": 9097,
      "compliment": 9098,
      "gathering": 9099,
      "ILL": 9100,
      "journalist": 9101,
      "rushed": 9102,
      "Children": 9103,
      "deemed": 9104,
      "Consider": 9105,
      "Several": 9106,
      "Charlotte": 9107,
      "!)": 9108,
      "101": 9109,
      "Bav": 9110,
      "Clo": 9111,
      "Dave": 9112,
      "EM": 9113,
      "Ell": 9114,
      "Jam": 9115,
      "Kirk": 9116,
      "NBC": 9117,
      "Page": 9118,
      "Sav": 9119,
      "Tit": 9120,
      "Tem": 9121,
      "Todd": 9122,
      "Win": 9123,
      "d4": 9124,
      "hits": 9125,
      "iPad": 9126,
      "kings": 9127,
      "mm": 9128,
      "mart": 9129,
      "pier": 9130,
      "tables": 9131,
      "vp": 9132,
      "inhabit": 9133,
      "remo": 9134,
      "beheld": 9135,
      "adults": 9136,
      "acon": 9137,
      "chamber": 9138,
      "util": 9139,
      "unwilling": 9140,
      "sus": 9141,
      "shining": 9142,
      "quo": 9143,
      "00000005": 9144,
      "Thought": 9145,
      "okes": 9146,
      "coins": 9147,
      "ansion": 9148,
      "discourse": 9149,
      "presu": 9150,
      "blem": 9151,
      "monstr": 9152,
      "thrust": 9153,
      "fling": 9154,
      "phen": 9155,
      "interference": 9156,
      "Brun": 9157,
      "visits": 9158,
      "memor": 9159,
      "brook": 9160,
      "ugly": 9161,
      "extension": 9162,
      "correspond": 9163,
      "continent": 9164,
      "signing": 9165,
      "officially": 9166,
      "promises": 9167,
      "planets": 9168,
      "tested": 9169,
      "winner": 9170,
      "1998": 9171,
      "floating": 9172,
      "nesse": 9173,
      "semi": 9174,
      "compete": 9175,
      "Louisiana": 9176,
      "hunting": 9177,
      "amounts": 9178,
      "prevented": 9179,
      "explore": 9180,
      "occasional": 9181,
      "enjoyment": 9182,
      "prepare": 9183,
      "episodes": 9184,
      "Glass": 9185,
      "surrounded": 9186,
      "citizen": 9187,
      "historical": 9188,
      "Foot": 9189,
      "knock": 9190,
      "Denmark": 9191,
      "scope": 9192,
      "announcement": 9193,
      "tornado": 9194,
      "wisdom": 9195,
      "Hurric": 9196,
      "doctors": 9197,
      "maximum": 9198,
      "brilliant": 9199,
      "Nobody": 9200,
      "kitchen": 9201,
      "seldom": 9202,
      "8e": 9203,
      "Agency": 9204,
      "Beach": 9205,
      "Cir": 9206,
      "CIA": 9207,
      "Fal": 9208,
      "Gaza": 9209,
      "Hand": 9210,
      "Max": 9211,
      "PU": 9212,
      "Sn": 9213,
      "Shad": 9214,
      "Saudi": 9215,
      "Talk": 9216,
      "Tech": 9217,
      "bust": 9218,
      "folly": 9219,
      "hers": 9220,
      "hatt": 9221,
      "horn": 9222,
      "knot": 9223,
      "lton": 9224,
      "rhy": 9225,
      "twe": 9226,
      "toile": 9227,
      "heere": 9228,
      "lement": 9229,
      "ica": 9230,
      "entreat": 9231,
      "acre": 9232,
      "unnecessary": 9233,
      "pole": 9234,
      "proven": 9235,
      "enders": 9236,
      "endors": 9237,
      "whoever": 9238,
      "cope": 9239,
      "scow": 9240,
      "scorn": 9241,
      "athers": 9242,
      "Assem": 9243,
      "finance": 9244,
      "armies": 9245,
      "closing": 9246,
      "sylvan": 9247,
      "Remember": 9248,
      "parad": 9249,
      "paralle": 9250,
      "solutions": 9251,
      "template": 9252,
      "silently": 9253,
      "operate": 9254,
      "hydro": 9255,
      "Gov": 9256,
      "Point": 9257,
      "accountable": 9258,
      "respectable": 9259,
      "marketing": 9260,
      "customer": 9261,
      "Berry": 9262,
      "approaching": 9263,
      "chiefly": 9264,
      "photograph": 9265,
      "observing": 9266,
      "warmth": 9267,
      "advantages": 9268,
      "scratch": 9269,
      "popularity": 9270,
      "prisoner": 9271,
      "recognition": 9272,
      "struggled": 9273,
      "EDF": 9274,
      "Network": 9275,
      "fiery": 9276,
      "rarely": 9277,
      "Nevertheless": 9278,
      "branches": 9279,
      "Atlantic": 9280,
      "Atlanta": 9281,
      "Review": 9282,
      "ignorant": 9283,
      "Build": 9284,
      "aggressive": 9285,
      "thoroughly": 9286,
      "summoned": 9287,
      "Current": 9288,
      "phase": 9289,
      "Bitcoin": 9290,
      "brutal": 9291,
      "liquid": 9292,
      "Jedward": 9293,
      "Arizona": 9294,
      "Michigan": 9295,
      "))": 9296,
      ",[": 9297,
      "Bey": 9298,
      "Chave": 9299,
      "Fa": 9300,
      "Jazz": 9301,
      "Junior": 9302,
      "Kings": 9303,
      "Pri": 9304,
      "RB": 9305,
      "RS": 9306,
      "Ti": 9307,
      "Tro": 9308,
      "b4": 9309,
      "cin": 9310,
      "eve": 9311,
      "hire": 9312,
      "iveness": 9313,
      "mouse": 9314,
      "pine": 9315,
      "parent": 9316,
      "sway": 9317,
      "tat": 9318,
      "tap": 9319,
      "vals": 9320,
      "wart": 9321,
      "yo": 9322,
      "insur": 9323,
      "anne": 9324,
      "anno": 9325,
      "arse": 9326,
      "irts": 9327,
      "unjust": 9328,
      "loop": 9329,
      "comic": 9330,
      "shed": 9331,
      "prophe": 9332,
      "endure": 9333,
      "okie": 9334,
      "cohol": 9335,
      "rath": 9336,
      "discrim": 9337,
      "merit": 9338,
      "obst": 9339,
      "objection": 9340,
      "desert": 9341,
      "smiles": 9342,
      "versions": 9343,
      "submit": 9344,
      "courts": 9345,
      "suppress": 9346,
      "breach": 9347,
      "ugged": 9348,
      "Unlike": 9349,
      "wondrous": 9350,
      "Email": 9351,
      "factory": 9352,
      "extend": 9353,
      "annon": 9354,
      "arring": 9355,
      "topic": 9356,
      "wheels": 9357,
      "define": 9358,
      "confused": 9359,
      "privat": 9360,
      "speaks": 9361,
      "Minnes": 9362,
      "admired": 9363,
      "Christians": 9364,
      "sailing": 9365,
      "Bern": 9366,
      "penet": 9367,
      "Maur": 9368,
      "physic": 9369,
      "prayer": 9370,
      "impressive": 9371,
      "contributed": 9372,
      "progressive": 9373,
      "Korean": 9374,
      "celebrate": 9375,
      "advised": 9376,
      "Following": 9377,
      "swiftly": 9378,
      "reminded": 9379,
      "preserve": 9380,
      "inflation": 9381,
      "typical": 9382,
      "consumer": 9383,
      "intellectual": 9384,
      "movies": 9385,
      "esteem": 9386,
      "approximately": 9387,
      "Chavez": 9388,
      "ABC": 9389,
      "Cow": 9390,
      "Cut": 9391,
      "Custom": 9392,
      "DV": 9393,
      "Es": 9394,
      "Oper": 9395,
      "Pict": 9396,
      "Rol": 9397,
      "Sab": 9398,
      "Seven": 9399,
      "Sens": 9400,
      "Were": 9401,
      "Wright": 9402,
      "athing": 9403,
      "fab": 9404,
      "lament": 9405,
      "pink": 9406,
      "wn": 9407,
      "wre": 9408,
      "inet": 9409,
      "theast": 9410,
      "recalled": 9411,
      "reverse": 9412,
      "alia": 9413,
      "adapt": 9414,
      "entry": 9415,
      "idly": 9416,
      "idol": 9417,
      "liver": 9418,
      "ceased": 9419,
      "celer": 9420,
      "agers": 9421,
      "abo": 9422,
      "illed": 9423,
      "keys": 9424,
      "conspir": 9425,
      "manif": 9426,
      "ount": 9427,
      "brows": 9428,
      "newly": 9429,
      "goods": 9430,
      "lessness": 9431,
      "scattered": 9432,
      "handful": 9433,
      "440": 9434,
      "Tran": 9435,
      "worlds": 9436,
      "tons": 9437,
      "mainly": 9438,
      "restored": 9439,
      "advancing": 9440,
      "meanwhile": 9441,
      "hearted": 9442,
      "Organ": 9443,
      "swimming": 9444,
      "expecting": 9445,
      "testim": 9446,
      "shores": 9447,
      "resulting": 9448,
      "wooden": 9449,
      "facility": 9450,
      "paint": 9451,
      "Manhatt": 9452,
      "campaigns": 9453,
      "attempting": 9454,
      "funded": 9455,
      "strangely": 9456,
      "speeches": 9457,
      "GOOD": 9458,
      "languages": 9459,
      "Hope": 9460,
      "catching": 9461,
      "Jonathan": 9462,
      "MiG": 9463,
      "primarily": 9464,
      "Disney": 9465,
      "hastily": 9466,
      "rified": 9467,
      "narrative": 9468,
      "virtual": 9469,
      "descend": 9470,
      "mixture": 9471,
      "external": 9472,
      "fundamental": 9473,
      "equivalent": 9474,
      "conventional": 9475,
      "Cameron": 9476,
      "diseases": 9477,
      "Minnesota": 9478,
      "3D": 9479,
      "Action": 9480,
      "Bat": 9481,
      "Bun": 9482,
      "Dag": 9483,
      "Dixon": 9484,
      "Fle": 9485,
      "Fall": 9486,
      "Flo": 9487,
      "HE": 9488,
      "LS": 9489,
      "PI": 9490,
      "Past": 9491,
      "Sports": 9492,
      "Soren": 9493,
      "TC": 9494,
      "Way": 9495,
      "bureau": 9496,
      "cunning": 9497,
      "d3": 9498,
      "dil": 9499,
      "lu": 9500,
      "mask": 9501,
      "rics": 9502,
      "vap": 9503,
      "recall": 9504,
      "env": 9505,
      "ingen": 9506,
      "issi": 9507,
      "leaf": 9508,
      "vex": 9509,
      "vell": 9510,
      "unseen": 9511,
      "illa": 9512,
[...]
